{"moat": 25266, "labs": 13625, "kincaid": 24510, ":": 1024, "concurrently": 15442, "illegitimate": 18102, "liverpool": 6220, "##wave": 16535, "lightweight": 12038, "net": 5658, "wore": 5078, "peacock": 18931, "\u03bb": 1165, "tanya": 19956, "203": 18540, "rotting": 22005, "\u307e": 1677, "various": 2536, "##\uff08": 30513, "yi": 12316, "##nov": 16693, "jericho": 17309, "antibodies": 22931, "humboldt": 19249, "graduation": 7665, "neptune": 21167, "falling": 4634, "metre": 7924, "stabilized": 27697, "##lica": 19341, "##\u05e4": 29807, "matching": 9844, "stool": 14708, "##49": 26224, "grandmaster": 27101, "aroma": 23958, "loan": 5414, "\u0131": 1104, "resentment": 20234, "skipper": 23249, "##ancy": 11656, "##\u0444": 29749, "##lers": 12910, "martina": 23508, "fitch": 26062, "enfield": 25821, "checkpoint": 26520, "theo": 14833, "sampled": 18925, "italians": 16773, "configured": 26928, "machine": 3698, "k": 1047, "[unused509]": 514, "middle": 2690, "hypnotic": 28322, "making": 2437, "inconsistent": 20316, "thinks": 6732, "jared": 8334, "##anal": 27953, "pens": 25636, "townships": 13991, "similarly": 6660, "chao": 22455, "clair": 17936, "...": 2133, "\u3061": 1662, "afford": 8984, "manning": 11956, "universe": 5304, "##bau": 27773, "sitting": 3564, "1710": 23841, "intervention": 8830, "##dh": 16425, "predatory": 21659, "[unused779]": 784, "1665": 27676, "logging": 15899, "wires": 14666, "resultant": 28573, "344": 29386, "kicking": 10209, "filtering": 22910, "distribute": 16062, "revenues": 12594, "retaliation": 18695, "##wo": 12155, "earthquakes": 17932, "54": 5139, "gymnastics": 14002, "##\u1106": 29995, "dining": 7759, "shadowy": 22801, "##{": 29640, "forcing": 6932, "humans": 4286, "southward": 22161, "402": 28048, "loans": 10940, "##notes": 20564, "mall": 6670, "##ao": 7113, "##truct": 18300, "shale": 18488, "##enter": 29110, "##vu": 19722, "cinderella": 21686, "##resh": 21898, "\u09a4": 1362, "dresser": 16641, "marries": 19941, "##amps": 25167, "##ological": 10091, "##\u0928": 29863, "intuitive": 29202, "delayed": 8394, "plaintiff": 20579, "decade": 5476, "\u1d49": 1499, "guide": 5009, "akbar": 20730, "keenan": 26334, "##rral": 24988, "splendid": 21459, "occasional": 8138, "shay": 18789, "arsenal": 9433, "nair": 22525, "\u05d1": 1242, "nicaragua": 15448, "realities": 22213, "kei": 26679, "ecology": 13517, "[unused991]": 996, "officials": 4584, "bled": 23919, "[unused668]": 673, "20th": 3983, "##grade": 24170, "[unused150]": 155, "\u306e": 1671, "famous": 3297, "##nington": 23155, "##mbo": 13344, "rodeo": 18936, "colleen": 28385, "previously": 3130, "xander": 29019, "oro": 20298, "vicar": 12340, "##\u098f": 29887, "\u0251": 1110, "upton": 26900, "##lei": 23057, "*": 1008, "##nin": 11483, "washing": 12699, "shortage": 15843, "realised": 11323, "fines": 21892, "remarks": 12629, "bernardo": 21175, "##puri": 24661, "ed": 3968, "witness": 7409, "lancashire": 9638, "bouquet": 26700, "[unused649]": 654, "254": 22234, "[unused909]": 914, "##sol": 19454, "astronomer": 15211, "fragments": 10341, "during": 2076, "##broken": 29162, "\u110f": 1466, "trip": 4440, "breeding": 8119, "[unused988]": 993, "18": 2324, "\u0448": 1203, "nick": 4172, "named": 2315, "1749": 24704, "##zek": 24506, "warren": 6031, "##aks": 29243, "engraver": 27771, "centre": 2803, "schneider": 15159, "advocates": 13010, "fiesta": 24050, "attacking": 7866, "\u11b7": 1487, "124": 13412, "implicit": 24655, "bored": 11471, "flashed": 8373, "berth": 17064, "disguise": 14249, "\u30d8": 1721, "##ont": 12162, "baku": 16807, "##dora": 24562, "\u1161": 1470, "##amy": 24079, "magic": 3894, "features": 2838, "offspring": 13195, "awhile": 19511, "rags": 26346, "##oud": 19224, "##imate": 21499, "pants": 6471, "collects": 17427, "rowe": 20538, "118": 12963, "performs": 10438, "jiangsu": 28091, "organise": 22933, "##\u05e7": 29810, "feasibility": 24010, "15": 2321, "mounting": 15986, "caught": 3236, "##\u5185": 30299, "munchen": 25802, "acre": 7456, "armand": 20371, "##\u308b": 30213, "disabilities": 13597, "##hall": 9892, "shimmering": 22349, "chants": 29534, "insane": 9577, "fr": 10424, "own": 2219, "creole": 21414, "conan": 16608, "sonora": 26647, "sessions": 6521, "connect": 7532, "reacts": 27325, "reviewers": 15814, "##\u9fb8": 30509, "ups": 11139, "transcript": 24051, "buena": 27493, "tko": 26537, "[unused681]": 686, "receptors": 13833, "businessmen": 17353, "##\u1105": 29994, "##25": 17788, "\u0433": 1183, "spare": 8622, "differing": 16965, "areas": 2752, "repetitive": 23563, "martin": 3235, "proof": 6947, "workshop": 8395, "[unused32]": 33, "##nae": 17452, "tackles": 10455, "annoying": 15703, "\u8033": 1937, "##cultural": 29415, "##oxide": 28479, "euro": 9944, "digital": 3617, "swedish": 4467, "##cious": 18436, "pressing": 7827, "162": 17832, "others": 2500, "alumni": 9441, "robbins": 18091, "curling": 11599, "auspices": 20153, "##lice": 13231, "rods": 19485, "executions": 22679, "##hey": 14844, "lone": 10459, "\u5f73": 1845, "cinema": 5988, "beneath": 4218, "convoys": 23083, "exempt": 11819, "lublin": 18967, "1973": 3381, "bony": 22678, "grants": 8624, "cody": 13326, "certainty": 15855, "infrared": 14611, "robyn": 28047, "re": 2128, "melodic": 17187, "innovative": 9525, "billie": 18210, "##water": 5880, "ivan": 7332, "tehran": 13503, "worried": 5191, "##inking": 29377, "reckless": 18555, "emptiness": 23397, "ashore": 16145, "[unused760]": 765, "mclaren": 18590, "mateo": 19327, "##aca": 19629, "brad": 8226, "##ooped": 20671, "\u2091": 1561, "monique": 26194, "retire": 11036, "create": 3443, "propped": 16863, "##hide": 26100, "wing": 3358, "affirmed": 19768, "730": 28004, "transferring": 14391, "frs": 25188, "plurality": 29018, "slips": 17433, "lough": 29504, "fairs": 21947, "manufactured": 7609, "495": 29302, "colony": 5701, "motown": 22654, "ville": 20184, "accordance": 10388, "cornered": 25878, "##\u10db": 29984, "\u0dbb": 1405, "devotion": 13347, "incline": 27461, "\u10d2": 1440, "##kel": 11705, "thinking": 3241, "suicide": 5920, "[unused658]": 663, "##\u00a3": 29646, "mathematical": 8045, "ammonia": 25874, "##izan": 27334, "lear": 26511, "florida": 3516, "baseball": 3598, "gulped": 25411, "properly": 7919, "swap": 19948, "robes": 17925, "needy": 23927, "elvis": 12280, "pending": 14223, "toledo": 13163, "##mology": 20570, "traits": 12955, "[unused860]": 865, "fruit": 5909, "##ichi": 11319, "##neck": 18278, "wedding": 5030, "halloween": 14414, "##ord": 8551, "\u8ecd": 1955, "operate": 5452, "examined": 8920, "leaking": 24325, "253": 23254, "elena": 9060, "discovers": 9418, "##dini": 26039, "##eld": 14273, "##glia": 20011, "capitals": 15433, "risen": 13763, "disgusting": 19424, "mobility": 12969, "interrupt": 17938, "delicately": 28814, "cheated": 22673, "hesitated": 9369, "differential": 11658, "identical": 7235, "claudius": 25017, "vicente": 17280, "wire": 7318, "shake": 6073, "qb": 26171, "harriet": 14207, "analogy": 23323, "kaitlyn": 28584, "pedestrian": 14662, "##56": 26976, "gabby": 27183, "whichever": 29221, "sao": 7509, "swansea": 16085, "prequel": 28280, "mon": 12256, "felicia": 27579, "scrape": 26988, "##ntial": 19909, "sadie": 21330, "chew": 21271, "compartments": 27998, "shelf": 11142, "adaptations": 17241, "##\u2092": 30091, "hive": 26736, "pisa": 25472, "##ap": 9331, "nectar": 24816, "greaves": 27808, "photographer": 8088, "rubbish": 29132, "aspirations": 22877, "##iques": 19516, "\u025b": 1115, "phelps": 20475, "aura": 15240, "##zen": 10431, "constantin": 27991, "##\u09b0": 29908, "stands": 4832, "\u00f7": 1099, "ruben": 19469, "offences": 18421, "concern": 5142, "##ht": 11039, "ambushed": 22168, "##tl": 19646, "edith": 13257, "sims": 18135, "weekend": 5353, "hosted": 4354, "vila": 23840, "rover": 13631, "okinawa": 15052, "##tness": 27401, "subordinate": 15144, "insulin": 22597, "reed": 7305, "ottawa": 8166, "1945": 3386, "sealing": 23038, "dutton": 28784, "swimmer": 13361, "senegal": 16028, "##van": 6212, "hymn": 14825, "resumed": 7943, "expertise": 11532, "##hri": 26378, "##zzling": 20838, "trojan": 23445, "obvious": 5793, "[unused285]": 290, "sponsor": 10460, "##while": 19927, "##ova": 7103, "##\u0648": 29836, "##;": 29628, "##eyer": 20211, "paths": 10425, "intercept": 19115, "pigeons": 27567, "remix": 6136, "ming": 11861, "##wright": 26460, "bewildered": 24683, "michelangelo": 27701, "willard": 19138, "someplace": 24956, "promise": 4872, "matches": 3503, "##breaker": 21204, "martinez": 10337, "1849": 9037, "hilbert": 27434, "oval": 9242, "endeavors": 28809, "##park": 14432, "55": 4583, "drained": 11055, "[unused51]": 52, "taxpayer": 26980, "##ise": 5562, "weaving": 15360, "interrupting": 22602, "##xie": 16898, "##(": 29619, "hutchinson": 17165, "shuddering": 25735, "spencer": 7084, "brings": 7545, "fabulous": 18783, "seeming": 16064, "depth": 5995, "##\u3001": 30161, "acid": 5648, "\u30a2": 1693, "abundant": 12990, "distinguished": 5182, "##olate": 19425, "palatine": 22202, "jax": 13118, "athletics": 6482, "fig": 20965, "conical": 24750, "young": 2402, "chick": 14556, "meng": 27955, "forcefully": 23097, "##,": 29623, "seaside": 20276, "polled": 26847, "ceremonies": 10912, "cyclist": 14199, "##moor": 17622, "returns": 5651, "##ana": 5162, "irene": 12855, "hostile": 10420, "documentation": 12653, "southeastern": 8252, "researchers": 6950, "proud": 7098, "##iki": 17471, "arya": 26140, "1718": 26995, "fair": 4189, "\u00ae": 1079, "vegas": 7136, "yellowstone": 29231, "1661": 24046, "chalmers": 29069, "gi": 21025, "grimm": 24287, "\u5f8c": 1846, "##grass": 19673, "arsenic": 29596, "claudia": 13479, "inch": 4960, "##vita": 28403, "baroque": 10456, "bearded": 23905, "wharton": 24249, "ancestry": 11377, "population": 2313, "cantor": 26519, "##eiro": 17166, "stupid": 5236, "##just": 29427, "##\u02b2": 29707, "##nza": 16786, "departmental": 28912, "mainly": 3701, "[unused129]": 134, "\u2098": 1567, "fibers": 16662, "november": 2281, "michelle": 9393, "greer": 25939, "universities": 5534, "##dre": 16200, "asia": 4021, "salute": 17664, "settlers": 7322, "isabel": 11648, "lance": 9993, "achieve": 6162, "defender": 8291, "##link": 13767, "weigh": 17042, "launched": 3390, "wax": 13844, "\u05da": 1251, "demonstration": 10467, "fund": 4636, "rug": 20452, "strides": 22215, "voiced": 6126, "##sonic": 18585, "safer": 13726, "##sil": 27572, "##quel": 22197, "girlfriend": 6513, "stupidity": 28072, "crew": 3626, "##pit": 23270, "##ities": 6447, "abundance": 14531, "##horse": 23024, "##sity": 17759, "[unused258]": 263, "achilles": 23167, "synagogue": 13067, "harder": 6211, "soared": 29127, "algorithms": 13792, "striped": 17983, "peoples": 7243, "##erly": 12561, "charted": 12568, "fully": 3929, "jung": 11810, "bulletin": 13146, "overseen": 22485, "##tley": 18492, "rq": 28134, "recounted": 22906, "serena": 14419, "following": 2206, "flaps": 26570, "##rand": 13033, "hodgson": 26107, "tatar": 29241, "\u3008": 1637, "lehman": 28444, "clenching": 23970, "hardened": 15015, "##around": 24490, "\u2095": 1564, "creeping": 18266, "crack": 8579, "astoria": 29285, "providence": 11293, "##osa": 8820, "[unused322]": 327, "cedric": 26170, "polk": 20819, "specialist": 8325, "1875": 7466, "phillips": 8109, "ferreira": 26135, "pronounced": 8793, "##ely": 26006, "tie": 5495, "waiter": 15610, "$": 1002, "docked": 25727, "ile": 17869, "harsh": 8401, "dung": 29328, "entirety": 15700, "luz": 26214, "enthusiast": 29550, "##eza": 28640, "plucked": 20780, "printing": 8021, "bertie": 20743, "semifinals": 8565, "##den": 4181, "loves": 7459, "ambitious": 12479, "##\u90ce": 30484, "\u0280": 1127, "[unused188]": 193, "\u00b0c": 6362, "casey": 9036, "##6": 2575, "longest": 6493, "##pres": 28994, "pissed": 9421, "resulted": 4504, "##strom": 15687, "protestants": 19592, "tuning": 17372, "\u58eb": 1807, "possibilities": 12020, "##keeping": 18321, "hurts": 13403, "schultz": 22378, "##\u7684": 30442, "snap": 10245, "teamed": 12597, "sob": 17540, "coli": 27441, "##ignant": 25593, "eugen": 29273, "##oked": 23461, "agnes": 11166, "[unused629]": 634, "been": 2042, "nexus": 26041, "housekeeper": 22583, "gotham": 22814, "##ela": 10581, "budapest": 10926, "irony": 19728, "rehabilitation": 11252, "thrilled": 16082, "[unused163]": 168, "trolls": 27980, "1805": 13126, "zac": 29250, "contend": 27481, "[unused985]": 990, "hottest": 20930, "##tf": 24475, "files": 6764, "##cula": 19879, "\u6226": 1856, "lacey": 16355, "posse": 25751, "narrative": 7984, "jets": 9924, "amour": 21518, "anxiously": 23403, "##rank": 26763, "confederacy": 18179, "consortium": 12360, "aspiring": 22344, "##zz": 13213, "##sts": 12837, "##ech": 15937, "claiming": 6815, "##ever": 22507, "billed": 14843, "arjun": 26024, "tod": 28681, "opportunity": 4495, "ill": 5665, "derrick": 18928, "dismiss": 19776, "lisbon": 11929, "##bury": 4917, "[unused942]": 947, "overall": 3452, "id": 8909, "newmarket": 22489, "statues": 11342, "persuade": 13984, "aching": 14750, "##sh": 4095, "egypt": 5279, "superiority": 19113, "[unused379]": 384, "##ag": 8490, "trunks": 20509, "goldman": 17765, "hilary": 22744, "keynes": 22152, "##otype": 26305, "##ene": 8625, "[unused230]": 235, "actors": 5889, "ye": 6300, "consuming": 15077, "##lined": 18194, "thrive": 25220, "table": 2795, "appropriations": 22713, "whitehall": 28361, "ratings": 8599, "##uit": 14663, "hp": 6522, "gideon": 12137, "asserts": 19514, "pupil": 11136, "trier": 25487, "55th": 29075, "##d": 2094, "lcd": 27662, "threaded": 26583, "##hill": 7100, "95": 5345, "instantly": 6880, "##zal": 16739, "##ttered": 14795, "##\u8449": 30469, "ornamental": 18200, "loaf": 27048, "##io": 3695, "##genesis": 23737, "##onus": 24891, "censorship": 15657, "sediments": 20476, "bolivar": 22118, "liver": 11290, "incorporating": 13543, "imagined": 8078, "hash": 23325, "vineyards": 20597, "informally": 21858, "something": 2242, "##aga": 16098, "domingo": 15586, "cho": 16480, "professional": 2658, "functionality": 15380, "periods": 6993, "spiked": 25362, "thief": 12383, "problematic": 18636, "fall": 2991, "[unused9]": 10, "liturgy": 21176, "chorale": 26561, "##dim": 22172, "##t": 2102, "formerly": 3839, "propose": 16599, "##gated": 11644, "kernel": 16293, "embodied": 25405, "scared": 6015, "barney": 15377, "doorbell": 25422, "momentarily": 16032, "hackett": 28630, "001": 25604, "notwithstanding": 26206, "again": 2153, "##ey": 3240, "emerson": 12628, "endeavour": 26911, "anniversary": 5315, "anyone": 3087, "binoculars": 29549, "##iah": 12215, "cleopatra": 22003, "showtime": 23811, "##ulent": 27581, "stroke": 6909, "bedside": 19475, "rumble": 15658, "katharine": 25739, "repeats": 17993, "1764": 21488, "du": 4241, "##4": 2549, "obsolete": 15832, "projective": 27473, "181": 18596, "fridge": 16716, "boiled": 17020, "lair": 21039, "##cier": 19562, "renowned": 8228, "themed": 11773, "require": 5478, "comedian": 9971, "holm": 28925, "freeman": 11462, "\u00bb": 1090, "112": 11176, "elementary": 4732, "ashok": 28916, "melanie": 13286, "##lston": 21540, "intro": 17174, "defected": 26330, "##rnik": 26437, "returned": 2513, "bianca": 18051, "dept": 29466, "raise": 5333, "matrices": 21520, "dairy": 11825, "##\u751f": 30436, "focus": 3579, "fracture": 19583, "honesty": 16718, "borne": 15356, "afghanistan": 7041, "marshal": 8610, "muttering": 22581, "elegance": 27745, "chess": 7433, "##ano": 6761, "313": 22997, "ghostly": 24407, "1779": 17616, "flores": 17343, "napier": 21320, "##sities": 24279, "madeleine": 19324, "paw": 22195, "jang": 23769, "havre": 28890, "##\u211d": 30107, "brands": 9639, "offensive": 5805, "dimitri": 15953, "laureate": 17656, "##\u0289": 29697, "\u10e1": 1452, "nominally": 24207, "scorpion": 22015, "anaheim": 20835, "[unused279]": 284, "assumes": 15980, "consulted": 17535, "tackled": 26176, "peanuts": 27613, "britney": 29168, "\u201d": 1524, "find": 2424, "anderson": 5143, "abbreviation": 22498, "vienna": 6004, "abroad": 6917, "cyrillic": 15522, "katherine": 9477, "pathology": 19314, "affectionately": 28734, "peek": 19043, "screw": 11224, "calculation": 17208, "conditions": 3785, "##\u0f44": 29963, "preach": 25250, "tall": 4206, "spanned": 18212, "inherited": 7900, "closed": 2701, "rests": 16626, "##yr": 12541, "orioles": 18893, "shoot": 5607, "##thorpe": 22398, "##meter": 22828, "tess": 15540, "appleton": 26050, "touchdowns": 10183, "brothel": 27308, "##\u1019": 29973, "##lp": 14277, "viceroy": 19007, "idea": 2801, "1570": 28881, "recreational": 10517, "dr": 2852, "cows": 17188, "enzymes": 16285, "metaphor": 19240, "accepted": 3970, "##pina": 26787, "lasting": 9879, "generator": 13103, "band": 2316, "cassidy": 13737, "eddie": 5752, "##dating": 16616, "holland": 7935, "atoll": 22292, "tensions": 13136, "lifting": 8783, "cord": 11601, "risks": 10831, "characterized": 7356, "popped": 10538, "situations": 8146, "\u5f18": 1843, "bryce": 19757, "##gate": 5867, "##zziness": 29212, "amnesia": 29222, "curvature": 25045, "reasoned": 24557, "141": 15471, "improvement": 7620, "smyth": 28103, "##lford": 23211, "since": 2144, "thought": 2245, "jurgen": 23171, "##\u5343": 30310, "veronica": 13133, "commonly": 4141, "help": 2393, "wichita": 18614, "revenge": 7195, "warmth": 8251, "miracle": 9727, "##ngo": 16656, "introductions": 25795, "##\u0bae": 29925, "abe": 14863, "refined": 15514, "perez": 10730, "view": 3193, "lesson": 10800, "vanilla": 21161, "padre": 28612, "##enberg": 11029, "insulted": 23637, "brewery": 12161, "venus": 11691, "[unused753]": 758, "##deh": 25383, "mahal": 27913, "passive": 13135, "texts": 6981, "northamptonshire": 21367, "hartford": 13381, "highlighting": 20655, "\u0449": 1204, "[unused385]": 390, "delta": 7160, "crate": 27297, "##\u90e8": 30486, "halted": 12705, "pool": 4770, "##az": 10936, "lafayette": 14425, "reformer": 24767, "clarence": 11805, "galleries": 11726, "footprints": 24629, "##lang": 25023, "mercury": 8714, "willingness": 19732, "fidelity": 22625, "lens": 10014, "pakistan": 4501, "randomly": 18154, "reservations": 17829, "assassin": 12025, "polka": 29499, "##bn": 24700, "trailers": 21389, "aluminium": 14794, "excavations": 14018, "jedi": 27273, "wolverine": 22162, "\u2084": 1551, "eroded": 23300, "runaway": 19050, "dod": 26489, "riot": 11421, "hydraulic": 14761, "1847": 9176, "antrim": 24142, "embraced": 14218, "bathroom": 5723, "elizabeth": 3870, "\u0995": 1353, "graves": 9729, "no": 2053, "##ru": 6820, "\u0921": 1321, "inactive": 16389, "hazards": 22010, "parties": 4243, "##nge": 15465, "zoo": 9201, "absorbing": 20998, "baffled": 29088, "[unused534]": 539, "sheath": 21867, "peasants": 13193, "generals": 11593, "briggs": 15487, "rafael": 10999, "incoming": 14932, "succeed": 9510, "##\u027e": 29692, "##nsis": 11745, "bandages": 27993, "[unused53]": 54, "thematic": 23539, "##nikov": 22576, "adhere": 25276, "##\u533a": 30308, "crocodile": 21843, "amelia": 11556, "doubling": 19383, "##\u2193": 30114, "[unused732]": 737, "wraps": 19735, "diagnosed": 11441, "barnes": 9957, "##nse": 12325, "erskine": 27139, "mma": 21021, "puzzled": 14909, "windsor": 10064, "##nted": 14706, "##ilis": 24411, "##kan": 9126, "mick": 10872, "promoted": 3755, "md": 9108, "arts": 2840, "##tou": 24826, "swiftly": 12128, "happiness": 8404, "grady": 19011, "\u4e45": 1748, "jimmy": 5261, "wake": 5256, "finer": 26954, "cadiz": 26342, "choosing": 10549, "injustice": 21321, "moldova": 16772, "belts": 18000, "constantly": 7887, "m2": 25525, "hm": 20287, "accelerating": 29494, "prized": 25695, "cpc": 28569, "leipzig": 11222, "##jee": 16963, "bela": 20252, "jerome": 11120, "##urgent": 27176, "supervising": 21238, "renal": 25125, "shave": 27545, "rational": 11581, "##ital": 18400, "silence": 4223, "etc": 4385, "standings": 11869, "\u9053": 1957, "sideways": 12579, "traveller": 21916, "\u092d": 1330, "doi": 9193, "om": 18168, "quiet": 4251, "[unused363]": 368, "adler": 17969, "sigh": 6682, "names": 3415, "finely": 22126, "hormone": 18714, "gym": 9726, "doug": 8788, "interpretation": 7613, "snarled": 15022, "2000s": 8876, "spinning": 9419, "[unused199]": 204, "[unused573]": 578, "priestess": 27677, "pairs": 7689, "unveiled": 11521, "##\u6709": 30399, "\u091a": 1318, "##xed": 19068, "##ffi": 26989, "rebelled": 25183, "##vite": 25217, "proportions": 19173, "bilingual": 17636, "liege": 17766, "clarinet": 12089, "fundraising": 15524, "intrusion": 24554, "antennae": 28624, "ko": 12849, "composure": 23619, "nasal": 19077, "##making": 12614, "psychiatric": 13691, "maiden": 10494, "##bet": 20915, "appear": 3711, "slender": 10944, "cost": 3465, "helm": 16254, "endless": 10866, "##orin": 28741, "workshops": 9656, "connie": 16560, "honored": 8686, "erratic": 24122, "lakshmi": 21352, "soloists": 27516, "bowman": 19298, "soc": 27084, "[unused110]": 115, "spotlight": 17763, "signage": 29404, "absently": 21284, "regardless": 7539, "exchanged": 10573, "jasper": 14791, "sailing": 8354, "collaborators": 21315, "##lena": 20844, "vt": 28879, "wielding": 26974, "putnam": 20230, "wang": 7418, "cade": 18615, "[unused910]": 915, "az": 17207, "authors": 6048, "oddly": 15056, "##utz": 20267, "[unused555]": 560, "a": 1037, "hoarse": 21221, "raion": 24235, "[unused454]": 459, "archaeologists": 19254, "philosopher": 9667, "[unused674]": 679, "groaned": 9655, "pinyin": 9973, "burundi": 28836, "scarlett": 20862, "massage": 21881, "##naud": 26160, "acquired": 3734, "1724": 26423, "conclusions": 15306, "turner": 6769, "expeditionary": 15372, "ridden": 15230, "angela": 10413, "eighth": 5964, "makers": 11153, "silvio": 28107, "penetrate": 19136, "##dur": 24979, "seventeenth": 15425, "latino": 7402, "[unused207]": 212, "disturbances": 24535, "1889": 6478, "##\u0448": 29753, "tablets": 17596, "##ej": 20518, "##izzly": 29266, "outrage": 19006, "##woods": 25046, "judy": 12120, "alternating": 15122, "fleeing": 14070, "ingredients": 12760, "##osta": 28696, "\u2229": 1604, "townland": 23635, "blitz": 22312, "##rise": 29346, "labeled": 12599, "##lge": 28875, "insufficient": 13990, "cheerfully": 27403, "amadeus": 27185, "cis": 20199, "benevolent": 25786, "gothenburg": 22836, "##hom": 23393, "\u0263": 1117, "consultancy": 24853, "52nd": 26898, "parameter": 16381, "realm": 8391, "sts": 8541, "roll": 4897, "##rius": 13245, "syndicated": 13889, "##logies": 21615, "[unused970]": 975, "loyola": 21580, "##etti": 18319, "kin": 12631, "physics": 5584, "too": 2205, "##bird": 9001, "ripple": 24644, "hit": 2718, "chancel": 16482, "mondays": 28401, "bane": 25163, "##ure": 5397, "fremantle": 20358, "squinted": 17425, "169": 18582, "reciprocal": 28309, "##ogenic": 24278, "##ssler": 23385, "##:": 29627, "jackie": 9901, "\u4f8d": 1765, "##hesion": 21471, "soaked": 13077, "sickness": 15556, "##tle": 9286, "dipping": 23427, "dam": 5477, "mana": 24951, "edo": 18314, "mcleod": 25363, "\u83ef": 1942, "futsal": 21921, "transitional": 17459, "\u043b": 1190, "lynch": 11404, "allegiance": 14588, "displayed": 6913, "celebrate": 8439, "furnace": 17533, "##\u10dd": 29986, "removal": 8208, "##escu": 19434, "entrepreneur": 10670, "peered": 10757, "\u0939": 1339, "nose": 4451, "##\u05d3": 29791, "sami": 17015, "welterweight": 20882, "clifton": 16271, "##oux": 28700, "dye": 18554, "ears": 5551, "ugly": 9200, "##ew": 7974, "##lyn": 9644, "\u2227": 1602, "stopping": 7458, "vincent": 6320, "visa": 9425, "##ie": 2666, "\u03b6": 1160, "aimed": 6461, "ao": 20118, "terminology": 18444, "##oms": 22225, "##gun": 12734, "##\u2044": 30070, "##aurus": 17342, "chilled": 23362, "##hh": 23644, "foothills": 18455, "[unused343]": 348, "swept": 7260, "##llin": 21202, "warship": 21905, "motifs": 17366, "seater": 23392, "\u30bf": 1709, "misunderstanding": 24216, "correspondence": 11061, "columnist": 13317, "labor": 4450, "##sto": 16033, "\u02e3": 1153, "op": 6728, "ebony": 27680, "retrospective": 15354, "collar": 9127, "jin": 9743, "foe": 22277, "##\u8279": 30465, "neighbors": 10638, "percussion": 6333, "##tors": 6591, "760": 24643, "##\u099b": 29893, "##rst": 12096, "incorporated": 5100, "##igate": 28731, "cape": 4880, "##pm": 9737, "riga": 17557, "seminole": 28909, "rid": 9436, "connections": 7264, "1670": 26253, "whom": 3183, "[unused616]": 621, "prism": 26113, "newsletter": 17178, "predominant": 21047, "##iri": 15735, "jamie": 6175, "fear": 3571, "vitamin": 17663, "surprising": 11341, "saxe": 24937, "164": 17943, "toulon": 27160, "intend": 13566, "englishman": 25244, "useful": 6179, "brazil": 4380, "205": 16327, "puerto": 5984, "means": 2965, "warily": 23625, "mergers": 28585, "bruises": 18438, "\u0924": 1323, "grocery": 13025, "##nal": 12032, "##odle": 26156, "diocesan": 18680, "##lence": 22717, "occupational": 16928, "seals": 13945, "bum": 26352, "clench": 26753, "isil": 19600, "interviews": 7636, "kali": 19924, "##san": 8791, "neville": 14871, "tom": 3419, "rabbi": 7907, "motorcycles": 18580, "\u90ce": 1958, "##manship": 21530, "dim": 11737, "hale": 13084, "\u028b": 1133, "subjected": 13532, "bomber": 9472, "prague": 8634, "isabella": 10323, "bread": 7852, "reopened": 11882, "##zaki": 18637, "\u5fc3": 1849, "ohio": 4058, "[unused854]": 859, "ensuing": 13831, "investments": 10518, "designers": 11216, "successor": 6332, "##free": 23301, "colleges": 6667, "##weight": 11179, "norwich": 12634, "mustafa": 19683, "paralyzed": 22348, "vow": 19076, "unearthed": 27422, "bachelor": 5065, "preparation": 7547, "amounts": 8310, "incidence": 18949, "reacted": 14831, "colonel": 4327, "worthless": 22692, "hospitality": 15961, "amir": 18904, "351": 28474, "disrupted": 20275, "universally": 21186, "battleship": 17224, "garner": 18661, "emperors": 19655, "1992": 2826, "piloted": 27220, "[unused255]": 260, "longevity": 26906, "wink": 16837, "lurking": 24261, "plotting": 20699, "financial": 3361, "terrain": 9291, "footing": 22849, "invites": 18675, "sticky": 15875, "il": 6335, "compatible": 11892, "schooling": 14118, "##rove": 17597, "rotated": 20931, "whereby": 13557, "##kovsky": 23829, "[unused644]": 649, "46th": 27990, "##ative": 8082, "suit": 4848, "inscription": 9315, "trusted": 9480, "older": 3080, "##oder": 27381, "spirits": 8633, "americans": 4841, "priscilla": 25193, "##ross": 25725, "inventor": 12235, "submissions": 27842, "torpedoes": 18544, "peripheral": 15965, "##ara": 5400, "eric": 4388, "holiday": 6209, "decrease": 9885, "amalgamated": 17143, "##ajan": 28869, "flavor": 14894, "##sko": 21590, "february": 2337, "\u09aa": 1367, "potter": 10693, "lime": 14123, "beforehand": 25828, "evicted": 25777, "reagan": 11531, "timor": 19746, "mfa": 26913, "planning": 4041, "edouard": 21627, "demoted": 25692, "passionate": 13459, "juniors": 16651, "620": 23612, "mono": 18847, "[unused479]": 484, "negatively": 19762, "macro": 26632, "junta": 22450, "##\u0456": 29760, "##ees": 10285, "cupped": 13740, "##vial": 18660, "drives": 9297, "1883": 7257, "sorts": 11901, "signaled": 22319, "##riz": 21885, "##ened": 6675, "##fleet": 27657, "##\u02b0": 29706, "nothin": 24218, "symmetric": 19490, "##pg": 26952, "pollock": 25218, "isolated": 7275, "1808": 13040, "minds": 9273, "on": 2006, "##merie": 28677, "louis": 3434, "stones": 6386, "[unused136]": 141, "##base": 15058, "key": 3145, "475": 28245, "yuan": 11237, "ars": 29393, "injured": 5229, "initiate": 17820, "##bot": 18384, "pot": 8962, "dwellings": 16707, "##hd": 14945, "##rca": 18992, "lack": 3768, "greater": 3618, "wave": 4400, "##raine": 26456, "##ellant": 24178, "pluto": 26930, "\u1174": 1482, "[unused849]": 854, "##tream": 25379, "hammond": 11309, "co": 2522, "##erry": 19826, "ned": 12311, "jump": 5376, "##cies": 9243, "\u207f": 1546, "turing": 28639, "cover": 3104, "##loh": 24729, "\u533a": 1782, "intentions": 11174, "\u0629": 1272, "1775": 14276, "piper": 11939, "petite": 20146, "shone": 14707, "\u1d40": 1495, "arresting": 28427, "unmanned": 24075, "paranoid": 19810, "edinburgh": 5928, "surface": 3302, "##dote": 23681, "hush": 20261, "[unused350]": 355, "rooted": 15685, "fray": 25975, "plantation": 10065, "[unused861]": 866, "##bourg": 20431, "offerings": 14927, "exam": 11360, "##nia": 6200, "##ower": 25114, "coastline": 15458, "##\u0642": 29834, "##hair": 26227, "cs": 20116, "##code": 16044, "hamburger": 24575, "citations": 22921, "##jian": 27685, "czechoslovak": 21282, "trainee": 26758, "titans": 13785, "slater": 17916, "[unused205]": 210, "miss": 3335, "skirt": 9764, "[unused497]": 502, "headline": 17653, "html": 16129, "knots": 9439, "marty": 12578, "tidal": 15065, "absorb": 16888, "1880s": 12751, "[unused239]": 244, "weakness": 11251, "gottingen": 23607, "better": 2488, "burst": 6532, "moe": 22078, "periodicals": 21855, "##75": 23352, "xbox": 12202, "delilah": 23006, "convinced": 6427, "##nsen": 29428, "##ropriation": 26121, "manpower": 22039, "honorable": 13556, "level": 2504, "germain": 19192, "##rip": 29443, "em": 7861, "##ica": 5555, "paired": 12739, "thirteen": 7093, "##vio": 25500, "poisonous": 22641, "peninsula": 6000, "major": 2350, "enclosed": 10837, "wilcox": 23926, "princess": 4615, "june": 2238, "observes": 24451, "issn": 23486, "exports": 14338, "xinjiang": 25904, "prowess": 26120, "bingham": 24579, "held": 2218, "##jiang": 21786, "madonna": 11284, "##rney": 27114, "peshawar": 28777, "1604": 28754, "piccolo": 29368, "mortals": 23844, "danger": 5473, "israeli": 5611, "dalton": 12413, "congregation": 7769, "francaise": 18427, "stairwell": 22109, "hammer": 8691, "strongly": 6118, "##rber": 20473, "civilian": 6831, "our": 2256, "breath": 3052, "[unused951]": 956, "corbett": 24119, "lil": 13451, "caspian": 25893, "dome": 8514, "##hu": 6979, "##esh": 9953, "214": 19936, "lured": 26673, "1746": 24507, "wrinkled": 15968, "caesar": 11604, "surgeons": 16804, "##ded": 5732, "combined": 4117, "\u09b7": 1375, "filed": 6406, "hen": 21863, "jerked": 8245, "desk": 4624, "milford": 22622, "physician": 7522, "stream": 5460, "polo": 11037, "##oman": 20778, "numb": 15903, "reservoir": 8071, "communal": 15029, "##itation": 18557, "aurora": 13158, "platforms": 7248, "315": 22904, "mausoleum": 19049, "##break": 23890, "alfred": 6152, "arabs": 14560, "courtesy": 14571, "streaming": 11058, "150": 5018, "daily": 3679, "##39": 23499, "##analysis": 25902, "##lah": 14431, "burgess": 17754, "cruise": 8592, "##mony": 22847, "darcy": 17685, "opposing": 10078, "##offs": 27475, "hayes": 10192, "biggest": 5221, "##estinal": 19126, "canvas": 10683, "magna": 20201, "doctor": 3460, "fitted": 7130, "[unused728]": 733, "loss": 3279, "thailand": 6504, "globalization": 24370, "metro": 6005, "fruits": 10962, "naval": 3987, "##ares": 17933, "##ang": 5654, "##kson": 26579, "consonant": 18265, "##rites": 28884, "helicopters": 12400, "recruited": 8733, "##ow": 5004, "responsible": 3625, "airship": 27636, "shrinking": 28375, "##vale": 17479, "resolutions": 18853, "virgil": 17270, "foreigners": 15040, "rushing": 8375, "##fine": 23460, "tent": 9311, "cubic": 11919, "tutor": 14924, "facing": 5307, "pay": 3477, "##ptive": 24971, "breakfast": 6350, "bobbed": 29579, "farmhouse": 16870, "athenian": 26956, "\u30bb": 1708, "chef": 10026, "woodward": 19133, "chefs": 27828, "andy": 5557, "tribunal": 12152, "seat": 2835, "##hil": 19466, "ordering": 13063, "artery": 16749, "[unused716]": 721, "\u0630": 1279, "##uga": 16377, "stakeholders": 22859, "observations": 9420, "tactical": 8608, "rus": 22949, "syrup": 23353, "stature": 21120, "april": 2258, "endings": 21306, "exploits": 20397, "independents": 23756, "franks": 21310, "establishing": 7411, "blinked": 7948, "crush": 10188, "##gies": 17252, "cast": 3459, "just": 2074, "\u5948": 1814, "##\u0282": 29695, "allegheny": 21192, "professor": 2934, "stylistic": 24828, "##frey": 22586, "##\u2044\u2084": 27392, "exhibiting": 22922, "##osi": 20049, "##iation": 18963, "mvp": 12041, "inspect": 22459, "##glers": 25555, "webb": 10923, "bulge": 23708, "arousal": 18905, "irrigation": 12442, "chairs": 8397, "everton": 18022, "##zow": 22670, "preparatory": 13485, "stockings": 26412, "proved": 4928, "##\u30ef": 30262, "alps": 13698, "prevents": 16263, "[unused643]": 648, "threaten": 15686, "cushions": 27205, "behalf": 6852, "decisions": 6567, "##apes": 29040, "ships": 3719, "##neuve": 28104, "acts": 4490, "yearbook": 24803, "hot": 2980, "##at": 4017, "marathi": 18388, "santo": 11685, "toss": 10055, "##~": 29643, "##bis": 18477, "wishes": 8996, "##dez": 24601, "mystical": 17529, "galilee": 28928, "surreal": 16524, "flames": 7311, "##\u6c35": 30420, "tunic": 23002, "##sus": 13203, "[unused870]": 875, "massachusetts": 4404, "gma": 20917, "routledge": 21180, "obligatory": 26471, "##uso": 26658, "debbie": 16391, "[unused70]": 71, "travels": 7930, "monsieur": 21380, "vip": 21722, "invested": 11241, "##oic": 19419, "##amo": 22591, "fortunately": 14599, "##rew": 15603, "1762": 20827, "maple": 11035, "changes": 3431, "##rter": 19418, "directors": 5501, "lucy": 7004, "gripping": 13940, "bestseller": 24304, "mysteries": 15572, "nigerian": 11884, "caravan": 17184, "##oko": 16366, "##ggles": 24989, "leveled": 22915, "universal": 5415, "stalked": 15858, "sandra": 12834, "touch": 3543, "##ung": 5575, "tribune": 10969, "supplying": 17731, "maddy": 20789, "##\u00a5": 29648, "eagle": 6755, "azerbaijani": 18325, "qc": 25196, "titus": 18828, "rouse": 27384, "mojo": 28017, "defeating": 6324, "primary": 3078, "##loading": 18570, "deng": 26957, "parted": 10277, "rao": 10546, "drunk": 7144, "1954": 4051, "nba": 6452, "viola": 10482, "explanations": 17959, "throat": 3759, "carried": 3344, "circular": 8206, "producer": 3135, "midlands": 13256, "crucial": 10232, "\u5bfa": 1827, "##ona": 7856, "electric": 3751, "grapes": 16575, "admiration": 17005, "##pher": 27921, "agitation": 22356, "invoked": 24959, "reg": 19723, "powerplant": 19526, "##ovo": 16059, "delivered": 5359, "egyptians": 23437, "east": 2264, "navarro": 23524, "walter": 4787, "enjoys": 15646, "begging": 12858, "\u662d": 1868, "deception": 17575, "gleaming": 18242, "gunslinger": 29274, "quantum": 8559, "myths": 17218, "basil": 14732, "cavalry": 5945, "gogh": 26603, "waves": 5975, "glued": 22805, "brace": 17180, "##ders": 13375, "chrome": 18546, "peggy": 14911, "ghana": 9701, "trolley": 20820, "pretoria": 25366, "luc": 12776, "body": 2303, "regis": 20588, "going": 2183, "##front": 12792, "stirring": 18385, "optical": 9380, "vibrating": 24987, "options": 7047, "revive": 17995, "influences": 8092, "perhaps": 3383, "berries": 22681, "reformation": 13708, "attain": 18759, "##nesia": 21509, "whirled": 17097, "portions": 8810, "tinged": 22683, "##ahl": 28083, "gene": 4962, "nurses": 11500, "##khan": 26370, "outlying": 25376, "saxon": 10038, "1806": 12518, "punk": 7196, "##phila": 26083, "sobbing": 20040, "slippery": 22274, "##oft": 15794, "fcc": 14420, "modified": 6310, "guarded": 13802, "##iae": 19001, "currency": 9598, "baby": 3336, "potion": 26722, "##ience": 13684, "perspectives": 15251, "##ister": 12911, "comparisons": 18539, "inventions": 21644, "##pas": 19707, "andover": 29463, "faith": 4752, "suite": 7621, "cary": 20533, "exercising": 28428, "keeps": 7906, "manny": 16320, "undertaker": 27568, "sparrow": 19479, "aramaic": 28934, "panic": 6634, "##be": 4783, "zimmerman": 27946, "[unused140]": 145, "paramilitary": 22258, "traveler": 20174, "reporting": 7316, "##ens": 6132, "sentence": 6251, "thick": 4317, "barrage": 19359, "seeker": 29444, "tolerate": 19242, "involvement": 6624, "##waite": 29601, "##te": 2618, "aldo": 28163, "advent": 13896, "vicious": 13925, "\u897f": 1947, "dyke": 22212, "distributing": 20083, "feminist": 10469, "statistical": 7778, "odessa": 19693, "founded": 2631, "jeanne": 14537, "factual": 25854, "provence": 19923, "[unused976]": 981, "[unused923]": 928, "jupiter": 13035, "##uve": 22909, "##rke": 25074, "applies": 12033, "owing": 11427, "brow": 8306, "##lid": 21273, "\u093e": 1340, "governed": 9950, "mutations": 14494, "geology": 13404, "stu": 24646, "consultants": 22283, "vowels": 15260, "dressed": 5102, "pausing": 20490, "##kur": 18569, "related": 3141, "tennessee": 5298, "lamar": 19756, "solvent": 23735, "##enstein": 21819, "confronting": 26964, "##going": 26966, "magazine": 2932, "animator": 25132, "coconut": 16027, "bun": 21122, "##yan": 7054, "\u0430": 1180, "brigades": 14589, "grin": 5861, "terra": 14403, "restrictive": 25986, "[unused204]": 209, "##has": 14949, "shocks": 28215, "\u10e3": 1454, "ordered": 3641, "docks": 15093, "game": 2208, "##ffe": 16020, "fading": 14059, "jain": 17136, "harta": 26283, "sleek": 21185, "hacker": 23307, "mayer": 14687, "molecule": 13922, "herd": 14906, "flowers": 4870, "gameplay": 11247, "\u0633": 1282, "skins": 21049, "inflated": 29561, "enjoyed": 5632, "1917": 4585, "bleak": 21657, "##ult": 11314, "guiding": 14669, "##mar": 7849, "indus": 27746, "province": 2874, "screenwriter": 11167, "##atin": 20363, "##mir": 14503, "fitzroy": 21870, "historians": 7862, "confuse": 28679, "apprehension": 25809, "restroom": 28249, "malibu": 29047, "45th": 24634, "warmed": 17336, "poets": 9736, "lawrence": 5623, "1870": 6940, "##lino": 25226, "##moral": 22049, "marcia": 22548, "grimly": 22561, "cycles": 12709, "organs": 11595, "attaining": 26615, "reflection": 9185, "1200": 14840, "##owski": 15249, "squared": 19942, "ely": 20779, "sbs": 21342, "expedition": 5590, "ac": 9353, "1905": 5497, "eaten": 8828, "kyle": 7648, "##partisan": 26053, "chuck": 8057, "melting": 13721, "cambridgeshire": 24197, "##\u207a": 12744, "##ae": 6679, "irresistible": 27149, "relieve": 15804, "intelligent": 9414, "subdivided": 15369, "##\u05dc": 29799, "##ion": 3258, "intimidation": 28973, "were": 2020, "##band": 12733, "[unused684]": 689, "[unused44]": 45, "\u30c3": 1711, "##tin": 7629, "act": 2552, "\u9673": 1972, "outfit": 11018, "commitment": 8426, "contact": 3967, "reclaim": 24104, "\u1105": 1458, "76": 6146, "##aly": 20766, "##\u3061": 30188, "flu": 19857, "mustard": 23187, "[unused913]": 918, "wessex": 27886, "examinations": 14912, "warp": 24136, "concentrations": 14061, "##dp": 18927, "introduces": 13999, "##sund": 25168, "morales": 17103, "bedford": 12003, "##rton": 11715, "haven": 4033, "competing": 6637, "transactions": 11817, "pea": 26034, "cromwell": 16759, "##berry": 9766, "##\u045b": 29764, "nosed": 29338, "##zily": 28431, "338": 27908, "[unused485]": 490, "likely": 3497, "amplified": 26986, "wylie": 29152, "singing": 4823, "senses": 9456, "themselves": 3209, "revolutions": 25239, "\uff0c": 1989, "unexpectedly": 14153, "generates": 19421, "expression": 3670, "practitioners": 14617, "##bley": 29538, "##lance": 23078, "knitting": 26098, "##\u6238": 30383, "recited": 24843, "2010s": 26817, "policy": 3343, "immersed": 26275, "lester": 14131, "destiny": 10461, "ravi": 16806, "shire": 13182, "bouncing": 16361, "phylogenetic": 23192, "##biotic": 26591, "profound": 13769, "##mith": 19864, "##sk": 6711, "foil": 17910, "ljubljana": 21588, "barrie": 24953, "dangers": 16796, "worsened": 27622, "propulsion": 16404, "ministry": 3757, "slaughtered": 23044, "##gly": 25643, "\u3080": 1679, "report": 3189, "##\u209a": 30097, "defined": 4225, "finally": 2633, "melodies": 16106, "collect": 8145, "##urg": 12514, "maps": 7341, "draining": 19689, "bronx": 14487, "utopia": 26425, "[unused274]": 279, "bald": 13852, "##ett": 6582, "grossing": 18244, "additional": 3176, "numbering": 15200, "enjoying": 9107, "spraying": 29035, "raceway": 23018, "fried": 13017, "apartment": 4545, "spread": 3659, "##lt": 7096, "asking": 4851, "auburn": 12704, "cfl": 18830, "definite": 15298, "##abia": 29039, "##ault": 23505, "jeff": 5076, "inducted": 8120, "rosalie": 29564, "welles": 23447, "exhibited": 8176, "brennan": 13962, "musician": 5455, "[unused517]": 522, "[unused853]": 858, "##cel": 29109, "arizona": 5334, "[unused303]": 308, "scramble": 25740, "vp": 21210, "rigged": 25216, "developments": 8973, "ives": 23945, "cabbage": 28540, "malta": 9933, "father": 2269, "mohawk": 22338, "##cular": 15431, "ked": 16135, "examination": 7749, "developed": 2764, "outright": 13848, "mysterious": 8075, "isis": 18301, "##zzy": 28753, "alike": 11455, "\u898b": 1948, "carriage": 9118, "##\u10d8": 29981, "00pm": 27995, "paso": 17161, "##hma": 22444, "astonishment": 23819, "classroom": 9823, "banker": 13448, "##iam": 25107, "[unused702]": 707, "joanne": 23459, "wah": 22894, "corridors": 17506, "assign": 23911, "pri": 26927, "\u2282": 1610, "greasy": 26484, "perceived": 8690, "adherents": 25712, "##lk": 13687, "pope": 4831, "natal": 17489, "babies": 10834, "clear": 3154, "[unused710]": 715, "schizophrenia": 23683, "geometridae": 24687, "accompanying": 10860, "compton": 18592, "##\u0430\u043d": 28995, "##eed": 13089, "##yx": 17275, "##dents": 28986, "pseudonym": 13881, "##rri": 18752, "##kee": 20553, "adam": 4205, "bollywood": 16046, "##ma": 2863, "lamb": 12559, "verbs": 16025, "\u308b": 1687, "hurting": 11878, "##ide": 5178, "provision": 9347, "test": 3231, "##\u4e0d": 30270, "aliens": 12114, "reconciled": 28348, "assumed": 5071, "equations": 11380, "##zzled": 17269, "\u2077": 1541, "carnage": 27450, "\u1112": 1469, "pines": 17527, "##ifying": 11787, "diagram": 16403, "persist": 29486, "##tua": 26302, "mutation": 16221, "1920s": 6641, "izzy": 16699, "##\u0cb0": 29937, "1654": 27445, "1629": 27882, "last": 2197, "deformation": 29130, "jubilee": 13078, "nicholls": 27043, "honda": 11990, "##eb": 15878, "reyes": 12576, "downstairs": 10025, "overwhelmed": 13394, "espn": 10978, "##fr": 19699, "analyzing": 20253, "gunpowder": 22220, "cow": 11190, "initiative": 6349, "170": 10894, "relatives": 9064, "joked": 19700, "121": 12606, "where": 2073, "hurling": 10839, "##zuki": 24015, "\u91d1": 1964, "efforts": 4073, "chewing": 17492, "theology": 8006, "morning": 2851, "stormy": 24166, "##layer": 24314, "furthermore": 7297, "gracie": 19005, "privately": 9139, "simone": 14072, "dame": 8214, "perceive": 23084, "archipelago": 13888, "vocal": 5554, "\u02d0": 1150, "2015": 2325, "silent": 4333, "quiz": 19461, "screams": 11652, "principal": 4054, "##routed": 25849, "kgb": 25467, "eight": 2809, "kappa": 16000, "authored": 8786, "energetic": 18114, "psalm": 22728, "##gram": 13113, "wickets": 10370, "\u301c": 1645, "[unused159]": 164, "elk": 18995, "\u300b": 1640, "prohibition": 13574, "##\u03b1": 14608, "colts": 14390, "##gm": 21693, "##ping": 4691, "##oslav": 23085, "nursery": 13640, "footballers": 27784, "##essed": 23656, "\u6c38": 1896, "promo": 19430, "\u516b": 1771, "en": 4372, "##lc": 15472, "improving": 9229, "inexperienced": 26252, "shrimp": 20130, "awake": 8300, "reared": 23295, "##weather": 28949, "comfortable": 6625, "couples": 6062, "##z": 2480, "destroyed": 3908, "fathers": 11397, "##rath": 27362, "trial": 3979, "teammates": 13220, "camp": 3409, "jaenelle": 20757, "seal": 7744, "##poulos": 24662, "cozy": 26931, "##ration": 8156, "cocktail": 18901, "##lla": 4571, "compete": 5566, "singled": 25369, "singles": 3895, "rubin": 20524, "learned": 4342, "invade": 18445, "doorway": 7086, "##morphic": 18078, "dust": 6497, "attend": 5463, "[unused390]": 395, "favour": 7927, "wyoming": 10622, "engravings": 28611, "##ished": 13295, "[unused493]": 498, "sweep": 11740, "airbus": 20901, "choking": 18329, "delegates": 10284, "astor": 25159, "nadia": 14942, "watch": 3422, "[unused491]": 496, "hostilities": 17601, "xi": 8418, "crumbling": 24827, "##\u0927": 29862, "psycho": 18224, "medallist": 28595, "##tlan": 28922, "spoke": 3764, "197": 19975, "nara": 27544, "borneo": 15688, "readings": 15324, "fluffy": 27036, "##chin": 17231, "2003": 2494, "innovation": 8144, "[unused106]": 111, "daniel": 3817, "revelations": 22191, "aperture": 18892, "fenton": 27096, "##agh": 17988, "address": 4769, "##falls": 28067, "##lder": 16502, "viking": 12886, "##bbly": 24200, "goblin": 22639, "ethical": 12962, "scholastic": 24105, "[unused254]": 259, "quadrant": 29371, "inhabited": 9613, "[unused73]": 74, "carmen": 11425, "bridge": 2958, "toulouse": 17209, "separated": 5459, "1618": 29029, "healing": 8907, "paid": 3825, "onboard": 27120, "[unused789]": 794, "relevant": 7882, "adding": 5815, "banners": 23562, "publishing": 4640, "successive": 11165, "supply": 4425, "sava": 28350, "metals": 11970, "thumbs": 16784, "framing": 20241, "##a1": 27717, "pharaoh": 22089, "##turing": 16037, "##jer": 20009, "lithuania": 9838, "##hia": 12995, "ns": 24978, "miniatures": 28615, "pedestal": 24496, "murderers": 28882, "favoured": 16822, "##rzy": 28534, "eastwood": 24201, "hail": 16889, "bourne": 15803, "gareth": 20243, "zheng": 20985, "machines": 6681, "avail": 24608, "nationalist": 8986, "never": 2196, "shooters": 28310, "salad": 16521, "rochester": 10541, "bingo": 27137, "salt": 5474, "footsteps": 9717, "diver": 17856, "malaya": 19979, "dodged": 28339, "premiership": 11264, "cube": 14291, "##\u0997": 29891, "leinster": 15684, "flora": 10088, "affairs": 3821, "uncommon": 13191, "lexi": 16105, "revolt": 10073, "ruler": 7786, "##zoo": 23221, "##lok": 29027, "shaking": 5513, "godfrey": 18238, "ajax": 18176, "relaxation": 23370, "slopes": 10314, "shiver": 13277, "click": 11562, "virginia": 3448, "backside": 25065, "incorrectly": 19721, "fraternity": 13577, "airport": 3199, "prejudice": 18024, "##dington": 21504, "marital": 23143, "adapting": 25357, "truths": 23019, "\u0928": 1327, "[unused447]": 452, "purchasing": 13131, "csa": 27804, "\u570b": 1800, "gem": 17070, "seventies": 26232, "##anne": 20147, "27th": 15045, "manual": 6410, "1643": 25534, "##}": 29642, "##nus": 10182, "##graphy": 12565, "1790": 13393, "##ah": 4430, "prevalent": 15157, "jong": 18528, "##atics": 17592, "hairy": 15892, "1909": 5556, "uncover": 26944, "[unused55]": 56, "counterattack": 27835, "shapes": 10466, "[unused796]": 801, "##\u11b7": 30023, "\u0e07": 1410, "originating": 14802, "##hale": 15238, "legends": 9489, "flatly": 24295, "value": 3643, "##uch": 10875, "sailors": 11279, "29th": 16318, "wrap": 10236, "mongols": 22235, "1758": 16832, "coronation": 12773, "[unused969]": 974, "##\u3084": 30208, "##lip": 15000, "fridays": 26587, "excluding": 13343, "simpler": 16325, "1782": 16890, "benfica": 26542, "##master": 8706, "unicorn": 21830, "##ield": 12891, "majority": 3484, "##dar": 7662, "ushered": 23815, "\u68ee": 1882, "architect": 4944, "merger": 7660, "##\u7a7a": 30456, "\u092c": 1329, "rowing": 12037, "dealing": 7149, "##\u0445": 29750, "siegel": 27996, "##kes": 9681, "##boro": 12691, "faculties": 18658, "ground": 2598, "narrowly": 11866, "qaeda": 18659, "heath": 9895, "\u300e": 1643, "starred": 5652, "collapsing": 22724, "##umb": 25438, "barnard": 22266, "sake": 8739, "appropriate": 6413, "bared": 23485, "travelers": 15183, "changing": 5278, "uncertainty": 12503, "soto": 22768, "ruin": 10083, "chaired": 12282, "\u2033": 1532, "johnny": 5206, "##tility": 18724, "aggregation": 28041, "wealth": 7177, "##\u110c": 30000, "##taro": 28160, "jim": 3958, "[unused148]": 153, "niger": 16842, "nigel": 12829, "madman": 28441, "tree": 3392, "rejection": 13893, "##ges": 8449, "##bbled": 12820, "65": 3515, "sim": 21934, "hussein": 16543, "socialist": 6102, "323": 25392, "allocated": 11095, "[unused688]": 693, "##jad": 27875, "raoul": 22063, "rourke": 24400, "[unused868]": 873, "clinched": 18311, "gregor": 16973, "verity": 22178, "shooting": 5008, "vegetables": 11546, "##\u5dff": 30363, "minors": 18464, "##cea": 21456, "fabrics": 25123, "doin": 24341, "##use": 8557, "dei": 14866, "##ses": 8583, "destroy": 6033, "castles": 15618, "florence": 7701, "seneca": 21224, "portal": 9445, "gabon": 23129, "sloppy": 28810, "design": 2640, "unusual": 5866, "jumper": 21097, "##chemist": 24229, "[unused959]": 964, "nothing": 2498, "53": 5187, "erased": 23516, "springs": 6076, "mascara": 27700, "chestnut": 15655, "reissue": 17173, "1655": 28438, "mixture": 8150, "urges": 23876, "237": 23297, "fred": 5965, "folly": 26272, "transitioned": 23946, "tuba": 29242, "##\u3053": 30181, "tries": 5363, "swaying": 21826, "volcano": 12779, "##rsk": 27472, "##tom": 20389, "everyone": 3071, "##\u043e\u0432\u0438\u0447": 16198, "##anna": 25789, "rick": 6174, "face": 2227, "encoded": 12359, "maori": 12600, "reading": 3752, "beautiful": 3376, "zebra": 29145, "##hal": 8865, "hank": 9180, "johansson": 26447, "##ando": 28574, "prospect": 9824, "##using": 18161, "preserves": 18536, "aj": 19128, "##rret": 27032, "toward": 2646, "1884": 6988, "swore": 12860, "extending": 8402, "williamsburg": 26366, "engineered": 13685, "ind": 27427, "venezuelan": 15332, "207": 19843, "extensions": 14305, "burying": 20491, "##sta": 9153, "william": 2520, "gate": 4796, "##edly": 26207, "##ling": 2989, "rocky": 6857, "strengthen": 12919, "shamrock": 28782, "nec": 26785, "oricon": 22237, "liga": 8018, "giggled": 15889, "uprising": 10138, "dwarfs": 28984, "##sari": 22740, "anthropology": 12795, "icon": 12696, "pumping": 14107, "trustee": 13209, "scene": 3496, "\u65b0": 1862, "madden": 24890, "believers": 20373, "##\u0639": 29830, "##ets": 8454, "[unused405]": 410, "disappeared": 5419, "moore": 5405, "entropy": 23077, "ripley": 25231, "communications": 4806, "planting": 14685, "kirby": 15129, "discourage": 28085, "troll": 18792, "fulton": 17049, "monks": 9978, "##umber": 29440, "[unused763]": 768, "surely": 7543, "crazy": 4689, "belarusian": 15626, "associated": 3378, "##gum": 22850, "rashid": 22080, "patting": 26085, "smackdown": 22120, "darby": 25844, "[unused65]": 66, "[unused112]": 117, "##bus": 8286, "that": 2008, "sponsoring": 29396, "+": 1009, "##alis": 13911, "shore": 5370, "feat": 8658, "chain": 4677, "peas": 26072, "patron": 9161, "##\u03c2": 19579, "berman": 29482, "1767": 21502, "zones": 10019, "relegation": 9591, "ha": 5292, "leash": 26834, "[unused566]": 571, "##di": 4305, "suicidal": 26094, "afrikaans": 28673, "\u0454": 1212, "gothic": 7788, "additive": 29167, "gustav": 13430, "undertaking": 18457, "##heads": 13038, "simplest": 21304, "religions": 11822, "bastards": 21123, "[unused409]": 414, "##\u00f8": 16415, "banner": 9484, "pencil": 14745, "constituencies": 13315, "##hui": 20552, "douglass": 27485, "appears": 3544, "2002": 2526, "##forms": 22694, "activity": 4023, "canned": 27141, "##iary": 17302, "well": 2092, "emigration": 20387, "nodes": 14164, "deposed": 18298, "glen": 8904, "golfer": 20601, "[unused451]": 456, "wish": 4299, "##ye": 6672, "entrepreneurs": 17633, "mist": 11094, "una": 14477, "maroon": 22222, "sulfate": 26754, "wynn": 25328, "commodities": 21955, "savage": 9576, "fairies": 20182, "##zai": 25290, "[unused85]": 86, "maui": 28566, "domino": 23968, "swimming": 5742, "##reus": 23446, "##lands": 8653, "bloomfield": 25584, "albion": 13392, "puppets": 26101, "lore": 19544, "##kley": 22315, "captivity": 16187, "strangers": 12358, "teased": 13074, "ridiculous": 9951, "distinctly": 19517, "holidays": 11938, "climate": 4785, "brewing": 16005, "##nea": 22084, "sold": 2853, "##neo": 23585, "##\u03c3": 29733, "##spar": 27694, "throwing": 6886, "latvia": 12429, "\u0b9f": 1384, "tucker": 9802, "sitcom": 13130, "##\u306f": 30198, "transverse": 18323, "1980": 3150, "visits": 7879, "exploded": 9913, "kathmandu": 28045, "pneumonia": 18583, "joyce": 11830, "mauritius": 18004, "altitude": 7998, "lizzie": 15860, "##\u6c38": 30422, "##wicz": 21355, "nelson": 5912, "ho": 7570, "stockton": 19161, "nitrate": 29607, "##dock": 14647, "teller": 21322, "##ncia": 22750, "##19": 16147, "##du": 8566, "pavilion": 10531, "##pf": 14376, "picket": 28972, "craftsmen": 25736, "1908": 5316, "##con": 8663, "grasped": 15517, "gained": 4227, "pauline": 15595, "quantitative": 20155, "oxfordshire": 20124, "indonesian": 9003, "##rada": 28510, "steal": 8954, "sq": 5490, "280": 13427, "stevenson": 13636, "\u6587": 1861, "mighty": 10478, "fin": 10346, "##\u10d2": 29976, "forbidden": 10386, "verge": 16079, "vie": 20098, "eastward": 17318, "growth": 3930, "##he": 5369, "carpet": 10135, "##fire": 10273, "reversal": 23163, "mother": 2388, "unbelievable": 23653, "stanley": 6156, "[unused238]": 243, "knicks": 27817, "##xide": 19491, "\u0575": 1230, "25th": 10965, "ferdinand": 9684, "vedic": 25824, "economy": 4610, "##min": 10020, "overdose": 26641, "significant": 3278, "concentrated": 8279, "contains": 3397, "vine": 15351, "mystic": 17477, "silvia": 27827, "##ddin": 18277, "##lberg": 22927, "heather": 9533, "icc": 16461, "deserts": 28858, "##n": 2078, "##sf": 22747, "painfully": 16267, "swayed": 20122, "##tracted": 24301, "churning": 26765, "coupling": 19780, "operative": 12160, "turkey": 4977, "deadly": 9252, "roughly": 5560, "transatlantic": 26617, "tate": 9902, "stung": 19280, "migrated": 13447, "istanbul": 9960, "##gaard": 18839, "hardcover": 20990, "##block": 23467, "burned": 5296, "persuasion": 27577, "coop": 21859, "joined": 2587, "##cci": 14693, "religion": 4676, "##ance": 6651, "\u66f8": 1871, "\u0268": 1118, "forthcoming": 16875, "gillespie": 21067, "schumann": 29448, "##clusive": 23633, "luzon": 21622, "hume": 20368, "perfection": 15401, "settlement": 4093, "[unused393]": 398, "paradox": 20506, "wembley": 16538, "tesla": 26060, "demolition": 12451, "\u793a": 1923, "\u1d63": 1508, "##\u043a": 23925, "##culus": 28703, "frequencies": 13139, "##\u3009": 30164, "routine": 9410, "broughton": 29187, "\u30c8": 1714, "##owe": 29385, "##lub": 27959, "morris": 6384, "spelling": 11379, "vane": 23334, "skeptical": 18386, "##\u30c3": 30237, "explained": 4541, "deported": 17929, "##st": 3367, "section": 2930, "auf": 21200, "avenue": 3927, "ina": 27118, "tricks": 12225, "looking": 2559, "441": 28015, "compressed": 16620, "281": 22955, "helmets": 22674, "daly": 18509, "importance": 5197, "boyer": 23456, "holstein": 18864, "argus": 25294, "petals": 15829, "stain": 21101, "creating": 4526, "provide": 3073, "aristotle": 17484, "varieties": 9903, "[unused694]": 699, "runes": 29161, "##\u0627\u0646": 18511, "padres": 21577, "insistence": 20616, "logs": 15664, "eagles": 8125, "carousel": 27628, "clothes": 4253, "gunn": 22079, "[unused412]": 417, "routed": 19578, "handicapped": 26920, "\u30e2": 1727, "fitzpatrick": 26249, "##\u06a9": 29841, "vitro": 25714, "encouraging": 11434, "documents": 5491, "\u1019": 1437, "##ind": 22254, "##\u1173": 30017, "##acker": 25418, "##\u2261": 30134, "starts": 4627, "##ging": 4726, "##ignment": 24838, "gs": 28177, "##ka": 2912, "driveway": 11202, "berber": 27514, "miguel": 8374, "[unused793]": 798, "efficient": 8114, "valencia": 13083, "grazing": 15400, "playboy": 18286, "##able": 3085, "mc": 11338, "allocation": 16169, "##camp": 26468, "##\u02bbi": 26444, "allies": 6956, "##\u1165": 30008, "messina": 27270, "fell": 3062, "##\u4f8d": 30291, "gifted": 12785, "uncovered": 14486, "##nz": 14191, "roberto": 10704, "##ability": 8010, "inhibitor": 24054, "##pha": 21890, "[unused331]": 336, "instructor": 9450, "ingredient": 21774, "##erate": 22139, "##\u4e16": 30271, "pueblo": 18273, "liberties": 18271, "ip": 12997, "laos": 15786, "##7th": 27506, "trainers": 21992, "narrowed": 8061, "rip": 10973, "cursed": 10678, "telangana": 23764, "mundo": 25989, "clyde": 12085, "da": 4830, "gulp": 26546, "riff": 24808, "thud": 20605, "surpassed": 15602, "coats": 15695, "##anov": 25417, "plump": 26731, "concerned": 4986, "ellie": 10707, "while": 2096, "subsidies": 21762, "##romatic": 23645, "floated": 13715, "tufts": 25252, "seamen": 28671, "validity": 16406, "coleman": 11608, "clouds": 8044, "compromise": 12014, "berry": 10498, "eucalyptus": 27111, "unfamiliar": 16261, "3d": 7605, "limestone": 9771, "##lous": 15534, "unused": 15171, "brook": 9566, "abrams": 23063, "garcia": 7439, "\u6c35": 1894, "gives": 3957, "intrigued": 18896, "distributed": 5500, "sevilla": 29363, "yelling": 13175, "\u057e": 1235, "tore": 9538, "elect": 11322, "worcestershire": 20218, "gender": 5907, "serpent": 16517, "containment": 29174, "##kawa": 13069, "##izes": 10057, "pushing": 6183, "drainage": 11987, "##rner": 18703, "354": 27878, "##\u4ec1": 30284, "scares": 29421, "groove": 14100, "counterpart": 13637, "aluminum": 13061, "kepler": 28219, "sixty": 8442, "varying": 9671, "barbed": 25007, "explosive": 11355, "##icing": 23553, "habits": 14243, "us": 2149, "course": 2607, "[unused408]": 413, "##door": 23835, "daniels": 13196, "pedestrians": 24946, "investigating": 11538, "translator": 11403, "1653": 29309, "grunted": 14922, "[unused840]": 845, "edmonton": 10522, "ritter": 23168, "bias": 13827, "massimo": 28080, "sara": 7354, "endured": 16753, "sexuality": 13798, "##growth": 26982, "[unused982]": 987, "brianna": 25558, "chewed": 18362, "faa": 17032, "institut": 17126, "words": 2616, "instruction": 7899, "pubs": 23598, "##pati": 24952, "button": 6462, "##gement": 20511, "whimper": 28544, "lie": 4682, "chancellor": 7306, "followers": 8771, "astronomy": 12799, "torpedo": 9862, "gaped": 23832, "236": 23593, "illusion": 12492, "postponed": 14475, "judged": 13224, "alumnus": 19678, "eyebrow": 9522, "##any": 19092, "ensemble": 7241, "barker": 12852, "mapped": 17715, "hilly": 22800, "curate": 27530, "cricket": 4533, "##gr": 16523, "\u6c11": 1892, "nailed": 26304, "pregnant": 6875, "##asurable": 28329, "rivals": 9169, "storytelling": 20957, "selecting": 17739, "##dham": 17661, "titanic": 20753, "pitches": 19299, "qualifier": 10981, "sectional": 27197, "hudson": 6842, "canteen": 26449, "basque": 13915, "adequately": 23613, "beaufort": 23622, "ethnicity": 18240, "blessings": 24618, "steamboat": 24897, "leary": 22986, "tighten": 21245, "83": 6640, "##rok": 27923, "embassy": 8408, "freeze": 13184, "boo": 22017, "blackmail": 25044, "naia": 29511, "##lee": 10559, "pets": 18551, "dazed": 19720, "##phon": 20846, "japan": 2900, "fragrance": 24980, "avant": 14815, "teaser": 27071, "##sian": 17043, "##ange": 22043, "emphasize": 17902, "##asian": 24145, "neglected": 15486, "thin": 4857, "accounting": 9529, "round": 2461, "sequences": 10071, "messed": 18358, "strict": 9384, "zhou": 14367, "##wood": 3702, "astros": 22058, "govt": 22410, "##tive": 6024, "3a": 23842, "kristin": 25130, "resigned": 5295, "panicked": 16035, "dementia": 28767, "vietnamese": 9101, "bjorn": 24998, "anne": 4776, "distributor": 16632, "atm": 27218, "gabriel": 6127, "recognizing": 14622, "##erland": 22492, "content": 4180, "[unused315]": 320, "lectures": 8921, "1761": 21364, "bb": 22861, "toxicity": 22423, "[unused950]": 955, "renovations": 15576, "photograph": 9982, "\u2071": 1537, "internet": 4274, "##dine": 10672, "begs": 27591, "hayden": 13872, "vittorio": 25914, "##write": 26373, "158": 17696, "sampson": 22041, "1852": 8784, "omnibus": 27284, "albeit": 12167, "meant": 3214, "defeated": 3249, "remarked": 10783, "vance": 16672, "mrna": 28848, "##bbing": 23200, "cream": 6949, "amanda": 8282, "wai": 23701, "\u2044": 1535, "partridge": 26079, "literary": 4706, "creek": 3636, "collective": 7268, "##schen": 23796, "theresa": 14781, "cinematography": 16434, "##oza": 25036, "##rag": 29181, "aubrey": 18961, "166": 18610, "termed": 12061, "##arina": 27943, "##zle": 29247, "immaculate": 19532, "upbeat": 27999, "nicely": 19957, "stew": 20717, "gunshot": 22077, "##ld": 6392, "urbana": 27929, "\u3066": 1665, "##filtration": 28674, "rope": 8164, "##21": 17465, "furiously": 20322, "disasters": 18665, "translucent": 22897, "debuting": 24469, "goalkeeper": 9653, "##hett": 28499, "substantive": 27737, "kilometre": 13214, "menace": 19854, "[unused956]": 961, "54th": 29570, "lindsey": 17518, "##60": 16086, "cone": 13171, "city": 2103, "lengthy": 12401, "##kian": 28545, "glossy": 19504, "orthogonal": 28721, "##jean": 27687, "islam": 7025, "yesterday": 7483, "stress": 6911, "woken": 22795, "\u30eb": 1733, "prophet": 12168, "##lese": 24527, "firefighters": 21767, "sparta": 21251, "##nk": 8950, "##leen": 24129, "independently": 9174, "mesopotamia": 25889, "\u0e1e": 1414, "[unused842]": 847, "##\u10d4": 29978, "illness": 7355, "cumberland": 12310, "\u0294": 1139, "analysis": 4106, "seriously": 5667, "lyons": 16642, "wolfe": 14212, "libre": 21091, "creator": 8543, "##usions": 22016, "everett": 15160, "warden": 13745, "saigon": 24001, "##lynn": 27610, "invaded": 10836, "featured": 2956, "##rus": 7946, "popcorn": 24593, "appealed": 12068, "201": 16345, "hood": 7415, "colombo": 16224, "\u7acb": 1931, "[unused392]": 397, "queer": 19483, "thayer": 25563, "folder": 19622, "haunt": 24542, "dependency": 24394, "mastering": 11495, "##gano": 29451, "although": 2348, "tai": 13843, "\u2c7c": 1631, "bridget": 19218, "distracted": 11116, "appetite": 18923, "trim": 12241, "karnataka": 12092, "duly": 25073, "patronage": 15694, "##iring": 24771, "##cca": 16665, "\u0644": 1294, "##mian": 20924, "shepard": 22189, "distraction": 14836, "malmo": 23643, "titled": 4159, "glared": 9400, "cdp": 8561, "personnel": 5073, "krakow": 14576, "<": 1026, "geek": 29294, "270": 13756, "forgetting": 17693, "enslaved": 22216, "jew": 16522, "jameson": 22324, "secluded": 27044, "orlando": 10108, "worlds": 8484, "schemes": 11683, "restoring": 16487, "erik": 10240, "torture": 8639, "esa": 28776, "lois": 15815, "##sun": 19729, "muriel": 27616, "##ci": 6895, "jurisdiction": 7360, "fable": 28458, "##imeter": 19198, "##hc": 16257, "permitted": 7936, "##wife": 19993, "committed": 5462, "##\u09aa": 29903, "mistress": 10414, "shrub": 15751, "rpm": 11575, "##\u2081": 11871, "josiah": 24461, "\u30ea": 1732, "sang": 6369, "gearbox": 22227, "diamonds": 11719, "applications": 5097, "discovering": 13648, "architects": 8160, "vital": 8995, "##\u09bf": 29915, "legally": 10142, "1759": 21667, "timed": 22313, "##oth": 14573, "##lists": 27103, "canada": 2710, "unrelated": 15142, "42nd": 21373, "dire": 18704, "##ino": 5740, "barbecue": 26375, "fault": 6346, "you": 2017, "perrin": 28106, "##hore": 16892, "passengers": 5467, "banking": 8169, "gertrude": 18734, "discharge": 11889, "cheap": 10036, "keeping": 4363, "ambulance": 10771, "must": 2442, "94": 6365, "abolition": 15766, "studies": 2913, "[unused596]": 601, "interpreter": 19555, "squeezing": 15328, "ribbon": 10557, "tuition": 15413, "outgoing": 22011, "[unused262]": 267, "shankar": 17429, "containers": 16143, "reflected": 7686, "slovene": 18326, "##eers": 22862, "singular": 13048, "##\u3082": 30207, "italian": 3059, "sired": 26940, "##ucible": 21104, "hummed": 26747, "##rti": 28228, "subjects": 5739, "delightful": 26380, "antonia": 24272, "dress": 4377, "bluff": 14441, "##optera": 25324, "naga": 26539, "ethel": 19180, "sen": 12411, "originates": 16896, "bike": 7997, "animal": 4111, "##dron": 19440, "leftist": 24247, "ronin": 29249, "wholly": 12590, "oleg": 25841, "therefore": 3568, "seemed": 2790, "offering": 5378, "linguistic": 12158, "hitch": 27738, "##jak": 18317, "details": 4751, "judge": 3648, "interests": 5426, "structured": 14336, "\u03c4": 1174, "ld": 25510, "released": 2207, "stump": 22475, "historian": 5272, "devoted": 7422, "manitoba": 10512, "\u3046": 1648, "mendoza": 18021, "steadily": 11328, "capabilities": 9859, "cardiff": 10149, "rand": 14566, "##eil": 24359, "##ble": 3468, "six": 2416, "dart": 14957, "hebrew": 6836, "rams": 13456, "macarthur": 17719, "##thest": 20515, "tunisia": 13437, "range": 2846, "acronym": 20137, "problems": 3471, "liberia": 18039, "exercises": 11110, "facades": 28708, "##ot": 4140, "tribes": 6946, "annual": 3296, "##oco": 24163, "passage": 6019, "bandwidth": 20235, "soaking": 22721, "parliament": 3323, "raj": 11948, "bequeathed": 27180, "franz": 8965, "generosity": 26161, "salle": 18005, "abu": 8273, "certificate": 8196, "serve": 3710, "circulation": 9141, "psalms": 26130, "roundabout": 22831, "seventy": 10920, "leases": 29597, "unicef": 29073, "liberalism": 26505, "opera": 3850, "##till": 28345, "story": 2466, "khyber": 28416, "milos": 26038, "afro": 17694, "##fusion": 20523, "shutter": 28180, "ultimate": 7209, "\u2193": 1586, "nam": 15125, "dialect": 9329, "stalls": 19753, "\u76f8": 1919, "bucks": 14189, "##\u092f": 29868, "eclectic": 20551, "circulated": 17640, "[unused375]": 380, "##orum": 20527, "[": 1031, "alien": 7344, "nutritional": 28268, "jules": 11044, "tongues": 19677, "graph": 10629, "millie": 19561, "beams": 13110, "agenda": 11376, "installing": 23658, "coarse": 20392, "variety": 3528, "work": 2147, "turin": 13667, "dying": 5996, "destructive": 15615, "##hurst": 10510, "celebrating": 12964, "##lander": 22691, "flute": 8928, "pearce": 19560, "relates": 14623, "molecular": 8382, "##\u10d7": 29980, "desired": 9059, "##nais": 28020, "arrival": 5508, "register": 4236, "goodbye": 9119, "bert": 14324, "murmur": 20227, "\u52a0": 1779, "mortality": 13356, "iata": 9833, "customers": 6304, "staggering": 26233, "bal": 28352, "\u201a": 1522, "##kker": 23793, "charged": 5338, "qui": 21864, "incapable": 19907, "395": 24673, "concepcion": 27331, "show": 2265, "nad": 23233, "sylvester": 20016, "parallel": 5903, "differences": 5966, "blessed": 10190, "buck": 10131, "browne": 15005, "gail": 18576, "restraint": 19355, "gibson": 9406, "drowned": 12805, "gift": 5592, "malik": 14360, "legend": 5722, "shortest": 20047, "bit": 2978, "##\u0259": 29681, "commanded": 6311, "muhammad": 7187, "vermont": 8839, "sponsored": 6485, "[unused527]": 532, "##lane": 20644, "flooding": 9451, "burkina": 23089, "ballads": 18456, "possessive": 22105, "interspersed": 25338, "kiara": 28870, "jamaica": 9156, "hemingway": 27299, "##bahn": 16052, "guests": 6368, "rubs": 28860, "quickly": 2855, "biographical": 16747, "amazement": 21606, "defensive": 5600, "bumper": 21519, "superman": 10646, "stabilization": 28715, "##nah": 15272, "##rain": 21166, "erika": 24900, "\u3009": 1638, "palestinian": 9302, "dioxide": 14384, "##\u2248": 30133, "betting": 19244, "##ep": 13699, "##cade": 21869, "##venor": 26806, "liquids": 26820, "vinci": 23765, "known": 2124, "solutions": 7300, "##\u1d49": 30035, "catalytic": 26244, "rhineland": 21640, "yiddish": 20112, "[unused608]": 613, "##ologists": 16886, "aviv": 12724, "organizer": 19012, "khz": 17737, "##ata": 6790, "##mament": 28119, "dangerous": 4795, "death": 2331, "##wal": 13476, "award": 2400, "flashbacks": 28945, "##hiff": 25798, "grupo": 26678, "pitt": 15091, "intentionally": 15734, "lynx": 22636, "type": 2828, "rn": 29300, "crash": 5823, "##pressed": 19811, "##bre": 13578, "[unused178]": 183, "##posed": 19155, "##oting": 20656, "[unused488]": 493, "[unused588]": 593, "startled": 9696, "brit": 28101, "##\u0563": 29768, "##yu": 10513, "swirl": 28693, "x": 1060, "winters": 12214, "draft": 4433, "grasping": 20854, "\u0b9a": 1383, "##cing": 6129, "inventory": 12612, "sermons": 20855, "passion": 6896, "organization": 3029, "theoretical": 9373, "[unused401]": 406, "hector": 10590, "##vb": 26493, "career": 2476, "pupils": 7391, "escapes": 12976, "sons": 4124, "mclean": 17602, "garden": 3871, "texture": 14902, "dortmund": 23912, "ruiz": 18773, "pete": 6969, "respecting": 27818, "occupants": 18837, "##oped": 24174, "robbie": 12289, "jesuits": 20297, "translated": 5421, "illegal": 6206, "##tension": 29048, "##personal": 28823, "78": 6275, "slumped": 14319, "sausage": 24165, "wheel": 5217, "##lish": 13602, "believed": 3373, "alloys": 28655, "coaster": 16817, "##pressive": 27484, "warped": 25618, "atrium": 26204, "notes": 3964, "erasmus": 26809, "1821": 11723, "nigeria": 7387, "rapper": 10687, "elliot": 11759, "hire": 10887, "##\u3092": 30216, "seeking": 6224, "takes": 3138, "shanghai": 8344, "displays": 8834, "tolkien": 23602, "##\u5929": 30337, "substances": 13978, "crowds": 12783, "confirm": 12210, "campaign": 3049, "connection": 4434, "pilasters": 26752, "oct": 13323, "stigma": 26453, "1870s": 14896, "##nem": 25832, "108": 10715, "carvings": 22838, "restricting": 26996, "whistled": 26265, "cecil": 11978, "[unused617]": 622, "\u11b8": 1488, "144": 14748, "daniela": 28541, "##ical": 7476, "difficulty": 7669, "##ddle": 20338, "buckinghamshire": 21712, "press": 2811, "divorced": 9196, "card": 4003, "folds": 15439, "associate": 5482, "moose": 17716, "chi": 9610, "markus": 23030, "michaels": 17784, "##connected": 24230, "kidding": 12489, "##bler": 16213, "notation": 14869, "reef": 12664, "robert": 2728, "available": 2800, "barber": 13362, "##metric": 12589, "251": 22582, "digest": 17886, "int": 20014, "##rasia": 27839, "##eira": 21302, "\u06cc": 1309, "stadiums": 28244, "sadly": 13718, "disgrace": 29591, "becca": 22140, "pu": 16405, "fl": 13109, "und": 6151, "##icum": 22167, "##oshi": 24303, "glance": 6054, "showdown": 24419, "##\u30b9": 30233, "dropped": 3333, "astronaut": 19748, "garnered": 13056, "##ika": 7556, "##ush": 20668, "##44": 22932, "mistakes": 12051, "uruguayan": 23464, "samsung": 19102, "enclave": 25867, "pop": 3769, "kinds": 7957, "colombian": 13598, "##phy": 21281, "directive": 16449, "##oin": 28765, "aaron": 7158, "pius": 14363, "prize": 3396, "stadion": 20756, "sail": 9498, "##\u043c": 29745, "[unused516]": 521, "symphonies": 29355, "shaun": 16845, "assimilation": 27574, "ant": 14405, "trimmed": 21920, "gloss": 27068, "cutler": 24975, "##\u02d0": 23432, "more": 2062, "sanford": 21153, "destinations": 14345, "[unused831]": 836, "material": 3430, "braking": 24427, "##ntino": 25318, "accidental": 17128, "list": 2862, "dismounted": 29580, "grassy": 22221, "hours": 2847, "##pool": 16869, "alonso": 17649, "subsidiaries": 20178, "surviving": 6405, "fewer": 8491, "berkeley": 8256, "soo": 17111, "lenny": 19065, "timothy": 10805, "author": 3166, "204": 19627, "lieutenant": 3812, "carved": 7844, "imprisoned": 8580, "\u2074": 1538, "properties": 5144, "lbs": 20702, "##rified": 22618, "chooses": 15867, "divisional": 14167, "##ctable": 23576, "##\u2264": 30135, "sprayed": 25401, "widened": 8723, "\u05e9": 1266, "##grant": 18980, "altitudes": 21973, "midi": 22265, "##\u0561": 29766, "pep": 27233, "porte": 25927, "vascular": 21449, "infringement": 20701, "personality": 6180, "master": 3040, "racks": 27259, "appearing": 6037, "tempted": 16312, "owen": 7291, "[unused859]": 864, "inequality": 16440, "##writer": 15994, "1832": 10212, "gomez": 12791, "slovak": 12747, "disregard": 27770, "lillian": 19344, "##kai": 11151, "resemblance": 14062, "1600": 14883, "simplicity": 17839, "perpetrators": 27675, "yarmouth": 28792, "diva": 25992, "composition": 5512, "chicken": 7975, "sisters": 5208, "erich": 17513, "enrico": 21982, "analytics": 25095, "monthly": 7058, "[unused319]": 324, "cactus": 23265, "tugging": 17100, "##aneous": 17191, "tackle": 11147, "picks": 11214, "rock": 2600, "adverse": 15316, "[unused805]": 810, "benedictine": 21139, "##kaya": 20718, "zimbabwe": 11399, "crusaders": 18831, "##titled": 21309, "samuel": 5212, "rosenthal": 29062, "starters": 29400, "##mania": 27010, "enlightenment": 16724, "relaxed": 8363, "perkins": 13601, "##mmy": 18879, "screamed": 7210, "chopped": 24881, "##\u30cb": 30242, "grown": 4961, "concerns": 5936, "##yuan": 17236, "##ffen": 18032, "novella": 20674, "squirrel": 18197, "metropolitan": 4956, "belarus": 12545, "##eous": 14769, "germans": 7074, "##kam": 27052, "finnish": 6983, "tyson": 19356, "suspiciously": 21501, "wwe": 11700, "##gis": 17701, "u2": 23343, "199": 20713, "condition": 4650, "##hly": 27732, "destroyers": 13242, "##ticus": 29587, "tanaka": 21829, "rotating": 13618, "emotionally": 14868, "1935": 4437, "sioux": 16615, "homogeneous": 24854, "translate": 17637, "reduction": 7312, "assemblies": 17720, "montevideo": 22460, "depict": 17120, "rotten": 11083, "##\u6c34": 30419, "bernhard": 21432, "neighbourhood": 10971, "methods": 4725, "built": 2328, "radioactive": 17669, "vanishing": 24866, "generating": 11717, "##tric": 12412, "presently": 12825, "ordained": 9492, "retreating": 17512, "charter": 6111, "breakaway": 26321, "individual": 3265, "confederates": 24627, "148": 16459, "auto": 8285, "together": 2362, "\u2212": 1597, "drew": 3881, "##mac": 22911, "responsive": 26651, "##yman": 17906, "receipts": 28258, "nut": 17490, "pistols": 18248, "##istan": 23137, "raft": 21298, "gonzaga": 26840, "mirrors": 13536, "##que": 4226, "dilemma": 21883, "[unused201]": 206, "teresa": 12409, "[unused27]": 28, "\u0289": 1131, "##ments": 8163, "use": 2224, "chichester": 23406, "barnett": 20073, "##itative": 29293, "funny": 6057, "322": 23768, "shards": 23327, "removed": 3718, "##away": 9497, "##bio": 26282, "[unused720]": 725, "stacey": 19997, "guardian": 6697, "weekday": 16904, "montane": 21704, "consultative": 28581, "rowan": 14596, "sociologist": 25106, "undergoing": 14996, "filmed": 6361, "immortal": 12147, "##position": 26994, "nutrition": 14266, "der": 4315, "meat": 6240, "node": 13045, "experimenting": 23781, "\u5fb7": 1848, "dec": 11703, "borrowed": 11780, "dominic": 11282, "peterson": 12001, "contra": 24528, "modernism": 27254, "transmitted": 11860, "barlow": 17803, "backing": 5150, "##tian": 10772, "amidst": 17171, "tensor": 23435, "uss": 7234, "shaping": 20300, "harness": 17445, "cheekbones": 27181, "48": 4466, "j": 1046, "emigrated": 11367, "tu": 10722, "excitedly": 23885, "##eum": 14820, "1858": 8517, "[unused621]": 626, "i": 1045, "##aux": 13754, "rutherford": 18472, "doesn": 2987, "##isches": 27239, "##eux": 20860, "\u624c": 1859, "##zyn": 23749, "starr": 14330, "conferences": 9281, "person": 2711, "richter": 20105, "looming": 23430, "strategically": 23972, "\u4eee": 1761, "##rom": 21716, "[unused640]": 645, "satellites": 14549, "1736": 28192, "monarchy": 12078, "clawed": 22544, "topography": 21535, "ecuador": 10378, "##rgen": 25892, "1701": 26059, "panthers": 12915, "baked": 17776, "orbit": 8753, "patriarch": 12626, "laser": 9138, "vampire": 4393, "machinery": 10394, "radios": 22229, "[unused411]": 416, "thru": 27046, "inlet": 15824, "mode": 5549, "host": 3677, "##rys": 24769, "roots": 6147, "lava": 13697, "controllers": 21257, "##\u1d63": 30043, "personally": 7714, "pictorial": 28304, "choi": 18151, "\u2099": 1568, "delaware": 8452, "##\u2098": 30096, "nouns": 19211, "flushing": 23519, "scheduling": 19940, "swords": 10689, "xii": 14371, "reverse": 7901, "roadway": 18799, "viktor": 13489, "##orn": 9691, "territory": 3700, "##hai": 10932, "puts": 8509, "reza": 26323, "rainforest": 18951, "infirmary": 23453, "banana": 15212, "oven": 17428, "##opus": 24676, "local": 2334, "##astic": 20875, "##bl": 16558, "##ilation": 29545, "##ryn": 18143, "asset": 11412, "\u0111": 1102, "##id": 3593, "facilitated": 19601, "##sner": 20479, "picasso": 22457, "##tet": 22513, "hull": 6738, "feeling": 3110, "##line": 4179, "transform": 10938, "williams": 3766, "1983": 3172, "whistle": 13300, "1960": 3624, "mali": 16007, "devoid": 22808, "simpson": 9304, "421": 29403, "##dridge": 21482, "authenticity": 21452, "medal": 3101, "barangay": 20937, "patrolling": 24248, "##iner": 26455, "\u00a35": 27813, "##out": 5833, "##\u3059": 30184, "garth": 21523, "kite": 20497, "curtis": 9195, "lithuanian": 10333, "hello": 7592, "heaving": 23907, "indictment": 24265, "peru": 7304, "seas": 11915, "jimi": 27624, "teddy": 11389, "weekly": 4882, "seoul": 10884, "bergen": 12674, "alternately": 23554, "kept": 2921, "guitarist": 5990, "warner": 6654, "1739": 25801, "##tc": 13535, "arson": 24912, "resurrected": 23053, "legacy": 8027, "##zquez": 22938, "##8": 2620, "protests": 8090, "radically": 25796, "##phile": 24862, "[unused5]": 6, "willis": 12688, "\u671d": 1874, "\u0916": 1316, "vigorously": 22400, "##ccus": 27631, "sage": 10878, "participates": 17257, "lowland": 15234, "relaunched": 26391, "neglect": 19046, "##mbe": 18552, "1895": 6301, "sweetness": 23210, "##thy": 16921, "weaponry": 22711, "regiments": 10435, "prima": 21111, "crews": 10604, "immature": 26838, "adjusting": 19158, "hole": 4920, "\u3081": 1680, "date": 3058, "scorer": 10835, "negotiate": 13676, "##\u0989": 29886, "circus": 9661, "sophomore": 13758, "voting": 6830, "muffled": 15783, "##\u266f": 30154, "obligations": 14422, "##kovic": 14733, "##\ufb02": 30511, "ruse": 26307, "vulgar": 29364, "kira": 15163, "##pro": 21572, "manor": 6952, "got": 2288, "knockout": 11369, "cheese": 8808, "subdivision": 12572, "replacements": 23936, "regretted": 18991, "dominate": 16083, "sighted": 19985, "application": 4646, "tha": 22794, "faster": 5514, "##tula": 28970, "commissioner": 5849, "##db": 18939, "golf": 5439, "judgment": 8689, "attacks": 4491, "suzy": 28722, "rockefeller": 16696, "rajasthan": 16815, "dawn": 6440, "constructing": 15696, "\u20b9": 1576, "marching": 10998, "migrate": 22806, "headlines": 19377, "##aya": 12186, "##bian": 15599, "tobacco": 9098, "1998": 2687, "chant": 16883, "na": 6583, "bog": 22132, "behaviors": 15592, "ages": 5535, "regime": 6939, "##zman": 24340, "pleasantly": 27726, "researches": 27338, "zee": 23727, "remotely": 19512, "980": 25195, "##lights": 15733, "sale": 5096, "142": 16087, "##nya": 17238, "nora": 12306, "##elt": 20042, "\u0446": 1201, "hawthorn": 21671, "hiding": 6318, "##itha": 26054, "arose": 10375, "demanding": 9694, "trench": 14185, "##f": 2546, "downloaded": 22817, "41": 4601, "colleague": 11729, "supermarkets": 26676, "paranormal": 20725, "1760": 19096, "storm": 4040, "fortunes": 18023, "stronghold": 16995, "notices": 14444, "bible": 6331, "references": 7604, "hesse": 16399, "ringing": 13060, "[unused171]": 176, "##esses": 26636, "##ans": 6962, "##cton": 28312, "fairly": 7199, "convenient": 14057, "fuss": 28554, "of": 1997, "correlation": 16902, "slow": 4030, "military": 2510, "shredded": 29022, "suez": 21974, "##ows": 15568, "[unused173]": 178, "bay": 3016, "ceramics": 17314, "leaps": 29195, "barony": 19365, "##riding": 21930, "performances": 4616, "endowment": 15108, "islander": 12544, "exposition": 13080, "##\u09ac": 29904, "battling": 17773, "##mack": 26945, "[unused121]": 126, "slide": 7358, "vijay": 17027, "ownership": 6095, "corners": 8413, "##\u043e\u0432": 19259, "inter": 6970, "tx": 19067, "##ror": 29165, "kentucky": 5612, "##ego": 20265, "oppose": 15391, "mer": 21442, "abortion": 11324, "grey": 4462, "er": 9413, "validation": 27354, "8th": 5893, "ara": 19027, "4": 1018, "preferences": 18394, "##lley": 25105, "##jos": 19929, "shea": 16994, "##mous": 27711, "cursing": 19752, "stole": 10312, "lara": 13679, "##ney": 5420, "gospels": 24131, "aye": 13442, "telling": 4129, "travellers": 19284, "gods": 5932, "convoy": 9549, "##pose": 20688, "seeded": 13916, "straight": 3442, "##pen": 11837, "##ncy": 9407, "villa": 6992, "##\u06be": 29844, "balloon": 13212, "doncaster": 18895, "ds": 16233, "uninhabited": 24749, "expenditure": 20700, "[unused836]": 841, "leave": 2681, "##od": 7716, "tender": 8616, "extravagant": 27856, "crap": 10231, "##cene": 17968, "hers": 5106, "\u0444": 1199, "##pic": 24330, "autonomy": 12645, "explode": 15044, "depleted": 22595, "louvre": 25110, "joe": 3533, "somebody": 8307, "##eter": 15141, "compensate": 19079, "outside": 2648, "inability": 13720, "uh": 7910, "transparent": 13338, "quiver": 29049, "##ida": 8524, "stereo": 12991, "[unused572]": 577, "brigham": 22727, "obstacles": 15314, "thorough": 16030, "sandwiches": 22094, "rot": 18672, "##lbert": 23373, "buddhism": 11388, "lengths": 10742, "1970": 3359, "wiring": 27930, "circled": 14867, "shorts": 9132, "jeremiah": 17526, "wrestlemania": 28063, "berkshire": 15570, "##\u0255": 29680, "spartan": 20670, "consult": 23363, "samantha": 11415, "parkway": 12602, "[unused841]": 846, "##\u65b9": 30389, "confederation": 11078, "gains": 12154, "technicians": 20202, "relations": 4262, "obeyed": 22665, "stumbled": 9845, "compound": 7328, "##raya": 29539, "cebu": 23312, "mandatory": 10915, "scheme": 5679, "grammy": 8922, "atletico": 16132, "had": 2018, "freeway": 10846, "##formed": 29021, "spd": 23772, "herb": 12810, "tending": 25069, "1649": 26538, "joshua": 9122, "marcel": 13389, "##ening": 7406, "walkers": 22559, "duration": 9367, "pinned": 11807, "ferrari": 13632, "##mers": 16862, "##zier": 21548, "##c": 2278, "strength": 3997, "lowell": 15521, "heels": 8265, "##rned": 21119, "femme": 26893, "inhibition": 23586, "functioned": 20903, "ops": 23092, "delaying": 29391, "##gne": 10177, "polly": 17543, "sid": 15765, "temperature": 4860, "regulation": 7816, "recapture": 27639, "launching": 12106, "defenses": 13345, "[unused648]": 653, "dread": 14436, "zombies": 14106, "printers": 23557, "ecological": 12231, "##ms": 5244, "collecting": 9334, "##fahan": 28975, "deluxe": 15203, "speculative": 23250, "##\u30c1": 30236, "assists": 8456, "arbitrary": 15275, "promoters": 26512, "lacking": 11158, "optional": 11887, "fractures": 28929, "clutch": 15357, "stallion": 19122, "breton": 16659, "dwyer": 29394, "pageant": 12438, "log": 8833, "casualty": 19844, "medalist": 12968, "steering": 9602, "##rrell": 14069, "##eria": 11610, "##baldi": 28807, "##\u00ac": 29655, "pulse": 8187, "multicultural": 27135, "##ulator": 20350, "[unused317]": 322, "four": 2176, "grove": 7676, "##nt": 3372, "\u0f66": 1436, "cock": 10338, "least": 2560, "activated": 8878, "##ishment": 21808, "civic": 8388, "##fold": 10371, "transmitter": 11659, "damned": 9636, "agitated": 21568, "randolph": 13031, "[PAD]": 0, "dunes": 17746, "##resses": 25932, "recreated": 29414, "bangalore": 14022, "2009": 2268, "[unused955]": 960, "navy": 3212, "[unused41]": 42, "infant": 10527, "zone": 4224, "feldman": 26908, "taxonomic": 27691, "cuff": 26450, "inauguration": 17331, "stunts": 28465, "beaver": 13570, "sugar": 5699, "##sable": 19150, "hirsch": 28127, "meet": 3113, "##mg": 24798, "crossbow": 28692, "[unused867]": 872, "cp": 18133, "commotion": 23960, "wages": 12678, "fascinated": 15677, "ic": 24582, "##auer": 21126, "minister": 2704, "##cit": 26243, "stephen": 4459, "evelyn": 12903, "xl": 28712, "##\u7530": 30437, "[unused893]": 898, "[unused818]": 823, "federer": 28294, "miracles": 17861, "[unused968]": 973, "analytical": 17826, "responds": 16412, "bram": 20839, "prior": 3188, "##tania": 21013, "matteo": 24713, "khan": 4967, "fey": 23864, "murals": 19016, "##o": 2080, "##ute": 10421, "##nction": 27989, "demands": 7670, "coldly": 24745, "photographs": 7008, "unknown": 4242, "whitney": 9809, "conceptual": 17158, "outdoor": 7254, "issues": 3314, "language": 2653, "vancouver": 6930, "enough": 2438, "sentencing": 23280, "[unused733]": 738, "jon": 6285, "paced": 13823, "##\u2012": 30050, "george": 2577, "wound": 6357, "passages": 13768, "ernie": 14637, "electronic": 4816, "subject": 3395, "tyres": 24656, "hip": 5099, "laundering": 28289, "leaflets": 27306, "37": 4261, "##zan": 13471, "wedge": 17632, "cod": 19429, "splinter": 27546, "dev": 16475, "dealer": 11033, "trailer": 9117, "outspoken": 22430, "denim": 26762, "abdominal": 21419, "##iable": 19210, "towels": 24213, "newspaper": 3780, "surprised": 4527, "palaces": 22763, "leaping": 21216, "##se": 3366, "##kata": 29123, "joaquin": 16877, "cabinet": 5239, "##ople": 27469, "##kal": 12902, "lissa": 20244, "cub": 21987, "[unused119]": 124, "intercity": 20651, "[unused939]": 944, "np": 27937, "fringe": 13548, "holloway": 20977, "trader": 17667, "burma": 11050, "##ivate": 21466, "234": 22018, "##chan": 14856, "##dler": 21222, "##zie": 14272, "[unused821]": 826, "##anu": 24076, "wandering": 13071, "wee": 16776, "##erre": 28849, "siding": 17326, "chilling": 27017, "auditions": 21732, "syndication": 26973, "\u10e0": 1451, "kia": 27005, "hint": 9374, "designate": 24414, "##10": 10790, "tagged": 26610, "tendency": 11765, "carving": 18441, "outlook": 17680, "running": 2770, "discouraged": 22585, "gaines": 28645, "candidate": 4018, "priority": 9470, "\u20a4": 1572, "fuji": 20933, "##ibe": 20755, "smuggling": 19535, "iii": 3523, "approaches": 8107, "##\u03b4": 29722, "ensured": 16316, "tour": 2778, "sabre": 22002, "stable": 6540, "accompany": 12673, "nino": 20801, "bathing": 17573, "com": 4012, "##\u02bb": 29711, "[unused751]": 756, "muster": 20327, "calling": 4214, "##dded": 19520, "korean": 4759, "##bold": 27495, "newport": 9464, "riots": 12925, "search": 3945, "nutrients": 20435, "devote": 23313, "davey": 20436, "ex": 4654, "##^": 29637, "##unda": 18426, "liechtenstein": 26500, "project": 2622, "##lva": 22144, "relentless": 21660, "pick": 4060, "shoving": 15866, "charlotte": 5904, "indies": 9429, "##uj": 23049, "psychiatry": 18420, "olympus": 26742, "##ents": 11187, "tract": 12859, "##ope": 17635, "seize": 15126, "guantanamo": 23094, "havana": 15278, "fishes": 21995, "americana": 25988, "bartlett": 20081, "##stock": 14758, "witnesses": 9390, "nik": 23205, "gloucester": 13370, "jae": 22770, "##ocytes": 28788, "families": 2945, "made": 2081, "##rp": 14536, "\u027e": 1126, "gaston": 18572, "naturally": 8100, "syn": 19962, "gentlemen": 11218, "internationale": 21339, "pressured": 25227, "ley": 25866, "spade": 23288, "corvette": 22687, "grover": 25242, "flanking": 24958, "lake": 2697, "165": 13913, "590": 25186, "##cus": 7874, "forster": 21316, "337": 28489, "majors": 15279, "tails": 17448, "##zza": 20715, "sexes": 21024, "mammalian": 26524, "juliana": 24157, "##rah": 10404, "scrubbed": 27820, "dwarf": 11229, "##minate": 19269, "kang": 16073, "##rrard": 29599, "plastic": 6081, "redeveloped": 28053, "proudly": 18067, "teeth": 4091, "computation": 22334, "screenplay": 9000, "networking": 14048, "yanking": 25716, "ze": 27838, "mingled": 25959, "slip": 7540, "sin": 8254, "regent": 11315, "seating": 10747, "groaning": 24781, "piedmont": 18873, "squadrons": 11435, "##\u20a9": 30101, "casually": 13217, "incorrect": 16542, "##tering": 17989, "westbound": 24717, "[unused545]": 550, "##iste": 27870, "bromwich": 27888, "pretend": 9811, "privilege": 14293, "configurations": 22354, "##\u624b": 30384, "fiba": 13651, "##isson": 24077, "shop": 4497, "##erik": 27350, "covert": 19813, "minorities": 14302, "up": 2039, "petit": 17268, "##\u028b": 29699, "chained": 22075, "sales": 4341, "declaration": 8170, "deposit": 12816, "also": 2036, "float": 14257, "##ill": 8591, "algerian": 16953, "podcast": 16110, "##stones": 29423, "##dicate": 16467, "[unused377]": 382, "##dern": 25888, "##\u3066": 30191, "industrial": 3919, "hindus": 18221, "leader": 3003, "sidewalks": 28386, "lynne": 26938, "goldsmith": 22389, "buttons": 11287, "sailed": 7434, "butterflies": 15023, "clues": 15774, "introducing": 10449, "box": 3482, "##girl": 15239, "taped": 19374, "lily": 7094, "competent": 17824, "##ctive": 15277, "##\u0434": 29742, "loire": 20399, "##\u0921": 29857, "##dos": 12269, "##orescence": 20030, "ransom": 16540, "mathematics": 5597, "worker": 7309, "beyonce": 20773, "jett": 22962, "[unused15]": 16, "gia": 27699, "unauthorized": 24641, "##chs": 18069, "dislike": 18959, "stout": 18890, "curry": 15478, "##farlane": 23511, "##cence": 29320, "watering": 25813, "adjust": 14171, "synthesizer": 13564, "##worm": 22769, "\u0e2d": 1421, "roasted": 28115, "##rone": 20793, "##ver": 6299, "bladder": 24176, "protection": 3860, "invited": 4778, "##dson": 25112, "commemorates": 25530, "saber": 25653, "aesthetics": 20749, "dry": 4318, "coastal": 5780, "mig": 19117, "gradually": 6360, "##\u02bf": 29714, "bargain": 17113, "newscasts": 24482, "##\u02bc": 29712, "enriched": 25202, "calgary": 10112, "inquiry": 9934, "fountain": 9545, "highland": 10983, "galactic": 21375, "##vr": 19716, "kenya": 7938, "##phones": 19093, "athletic": 5188, "prevention": 9740, "someday": 13834, "oaxaca": 26923, "gradient": 17978, "prolific": 12807, "##eley": 22352, "outrageous": 25506, "retaining": 12823, "buy": 4965, "imprisonment": 10219, "topology": 19587, "adventure": 6172, "dempsey": 28165, "cayman": 26164, "[unused678]": 683, "exclusively": 7580, "rudd": 25298, "[unused114]": 119, "drops": 9010, "democrats": 8037, "clinch": 29119, "affected": 5360, "drank": 10749, "##lies": 11983, "orderly": 23589, "severe": 5729, "bold": 7782, "##dina": 18979, "donations": 11440, "reputed": 22353, "touring": 6828, "endelle": 29581, "prototypes": 19599, "road": 2346, "instant": 7107, "##\u0111": 29671, "258": 24398, "flinch": 23224, "rhode": 9763, "institute": 2820, "##\u79c0": 30454, "##smo": 25855, "##anger": 25121, "finds": 4858, "slap": 14308, "pumps": 15856, "direction": 3257, "intimately": 29024, "owners": 5608, "flemish": 15427, "grows": 7502, "ankles": 15392, "##r": 2099, "darting": 24567, "##yed": 20821, "227": 21489, "##ricting": 28827, "[unused212]": 217, "compelling": 17075, "##bah": 24206, "pseudo": 18404, "##illa": 9386, "##\u0bbf": 29932, "lulu": 21744, "blurted": 18751, "portuguese": 5077, "##\u00a9": 29652, "sumatra": 18262, "indicates": 7127, "dirty": 6530, "##bers": 17198, "##erus": 21608, "##ching": 8450, "sherry": 22268, "installed": 5361, "divers": 18612, "##\u5fc4": 30376, "royce": 14789, "##walk": 17122, "rather": 2738, "flash": 5956, "constructive": 26157, "favorites": 20672, "seizure": 18634, "alley": 8975, "facilitates": 27777, "heterosexual": 28229, "[unused225]": 230, "baronet": 8693, "\u0634": 1283, "mort": 22294, "m1": 23290, "limbs": 10726, "riches": 26768, "diameter": 6705, "fighters": 7299, "sided": 11536, "monterrey": 26843, "laszlo": 28226, "##abe": 16336, "343": 27810, "##\u10d1": 29975, "furnishings": 23127, "disliked": 18966, "tipped": 11182, "iv": 4921, "attitudes": 13818, "dmitry": 22141, "##bians": 26376, "alexis": 13573, "##nam": 13129, "king": 2332, "aircraft": 2948, "bayou": 24818, "hiv": 9820, "##arth": 22425, "##gonal": 20028, "287": 23090, "##att": 19321, "affecting": 12473, "placement": 11073, "weighs": 21094, "moderator": 29420, "twin": 5519, "##jack": 17364, "periodically": 18043, "##pire": 20781, "pleasing": 24820, "negotiated": 13630, "##you": 29337, "anytime": 15933, "possessed": 8679, "questions": 3980, "asturias": 26798, "santana": 21158, "rouen": 27030, "karate": 16894, "becoming": 3352, "hiroshima": 20168, "##logue": 24277, "neatly": 15981, "shri": 14880, "nassau": 14646, "327": 28469, "knocking": 10591, "airline": 8582, "helps": 7126, "##cated": 12921, "##lie": 8751, "fra": 25312, "##\u5fe0": 30378, "##cuit": 28168, "boarded": 17383, "##\u6625": 30393, "##\uff0f": 30518, "allowed": 3039, "initiated": 7531, "\u1166": 1473, "palo": 24326, "structures": 5090, "##dic": 14808, "distributions": 20611, "locate": 12453, "1771": 20708, "coalition": 6056, "dem": 17183, "nathaniel": 13961, "twain": 24421, "##tec": 26557, "##sau": 23823, "pivotal": 20369, "delivering": 12771, "windmill": 25367, "boulders": 22177, "##dana": 25917, "umar": 27981, "345": 23785, "brahms": 28419, "wheelchair": 13204, "##rley": 12866, "weeping": 19750, "kids": 4268, "##ject": 20614, "digitally": 18397, "provides": 3640, "def": 13366, "valleys": 12467, "frost": 10097, "##ken": 7520, "ata": 29533, "catherine": 6615, "##\u2078": 30077, "redesign": 25136, "supreme": 4259, "spaghetti": 26666, "##mat": 18900, "joints": 17651, "squinting": 29156, "henrietta": 20775, "permits": 14245, "##\u2229": 30131, "diminished": 15911, "hilltop": 25566, "\u208a": 1557, "empire": 3400, "lawyer": 5160, "claremont": 23716, "##brook": 9697, "opinions": 10740, "hockey": 3873, "mechanics": 9760, "vice": 3580, "\u05dd": 1254, "##ald": 19058, "olympian": 25977, "\u30a4": 1695, "baldwin": 10970, "##qi": 14702, "bautista": 27845, "boil": 26077, "quartz": 20971, "sweet": 4086, "like": 2066, "presumably": 10712, "v6": 25275, "##gration": 29397, "##\u1d40": 30031, "documentaries": 15693, "\u0926": 1325, "bryan": 8527, "licenses": 15943, "helen": 6330, "refit": 27070, "evil": 4763, "abbess": 28010, "1981": 3261, "shut": 3844, "followed": 2628, "sharon": 10666, "\u30ce": 1717, "1815": 10679, "waited": 4741, "troop": 10123, "vicki": 25424, "points": 2685, "score": 3556, "canning": 24549, "entered": 3133, "phone": 3042, "windshield": 19521, "general": 2236, "decks": 19963, "difficult": 3697, "pension": 11550, "alpha": 6541, "mating": 15100, "marylebone": 28537, "transforming": 17903, "1744": 25846, "emi": 12495, "penny": 10647, "\u06d2": 1310, "jenkins": 11098, "selangor": 28904, "montagu": 26241, "welcomed": 10979, "##vin": 6371, "faded": 8105, "##tlement": 24007, "neue": 27713, "admired": 12749, "\u624b": 1858, "advises": 25453, "\u21a6": 1588, "kingdoms": 12028, "swirled": 19171, "burnham": 25295, "##trick": 22881, "procedural": 24508, "mobilization": 25580, "[unused874]": 879, "announcement": 8874, "brigadier": 9900, "beats": 10299, "##mel": 10199, "##\u0f58": 29968, "goddard": 22547, "mongolian": 17855, "loose": 6065, "##tone": 5524, "strife": 27865, "\u5409": 1793, "##ott": 14517, "##church": 22743, "courtship": 28592, "assist": 6509, "\u25a0": 1617, "[unused972]": 977, "ithaca": 27939, "parasites": 23996, "##endra": 19524, "[unused536]": 541, "##en": 2368, "peacekeeping": 28364, "caf": 24689, "##ifies": 14144, "[unused399]": 404, "##guchi": 16918, "##washed": 27283, "nominal": 15087, "pedal": 15749, "mayfield": 27224, "ascended": 19644, "technician": 16661, "antarctic": 10227, "129": 14378, "##cao": 20808, "connecticut": 6117, "choreographer": 17334, "believes": 7164, "congressman": 12295, "racing": 3868, "atheist": 23503, "intently": 16170, "cartridge": 15110, "recess": 28290, "tudor": 15588, "##52": 25746, "bengal": 8191, "peeking": 28222, "guy": 3124, "sustained": 8760, "thicker": 19638, "miner": 18594, "cinemas": 19039, "sheppard": 24976, "profiles": 17879, "sensitivity": 14639, "intensely": 20531, "depended": 17292, "halo": 17201, "\u6709": 1873, "\u7cf9": 1934, "viable": 14874, "substitute": 7681, "haired": 10681, "disqualification": 27782, "##\u798f": 30452, "balance": 5703, "1985": 3106, "fourth": 2959, "minute": 3371, "1719": 28162, "[unused719]": 724, "cracking": 15729, "##cheon": 28099, "platinum": 8899, "##iano": 15668, "induction": 15946, "jewel": 13713, "interceptions": 18387, "1894": 6539, "parramatta": 22820, "anonymous": 10812, "arterial": 25543, "debuted": 6006, "reptiles": 20978, "rolls": 9372, "##roving": 22046, "750": 9683, "##eves": 23047, "##vision": 17084, "pigment": 28815, "punching": 19477, "57th": 28623, "1100": 22096, "jakob": 19108, "prices": 7597, "feeder": 21429, "##iya": 8717, "\u5c1a": 1830, "elmer": 21464, "carol": 8594, "divine": 7746, "douglas": 5203, "dukes": 16606, "##6th": 25994, "pleading": 16418, "fraudulent": 27105, "signs": 5751, "knoxville": 20021, "blessing": 13301, "marked": 4417, "equivalent": 5662, "pancakes": 28470, "[unused13]": 14, "needs": 3791, "beatrice": 14807, "framework": 7705, "disks": 23999, "##ked": 8126, "fly": 4875, "sacramento": 11932, "##hort": 27794, "proceeding": 18207, "telugu": 12180, "##low": 8261, "metacritic": 14476, "lodges": 26767, "imperfect": 29238, "winding": 12788, "professorship": 22661, "##ych": 17994, "pianos": 27864, "cavendish": 23570, "##wei": 19845, "shy": 11004, "former": 2280, "##nson": 15551, "whaling": 23687, "ourselves": 9731, "switched": 7237, "christie": 13144, "madrid": 6921, "associations": 8924, "\u2206": 1594, "c": 1039, "derivative": 13819, "##kong": 25460, "##law": 14919, "fivb": 28423, "##oto": 11439, "zeppelin": 22116, "\u30de": 1723, "hopeless": 20625, "417": 27519, "chartered": 12443, "##orough": 26388, "sublime": 28341, "legitimacy": 22568, "inspirational": 28676, "##llan": 19036, "expand": 7818, "edwin": 10049, "sirius": 23466, "thai": 7273, "warrior": 6750, "resistant": 13070, "bach": 10384, "discovered": 3603, "aeronautical": 25010, "allmusic": 10477, "##actic": 28804, "directions": 7826, "bathurst": 21897, "taluk": 23140, "suck": 11891, "1827": 12309, "hostages": 19323, "astronomers": 26357, "pascal": 17878, "1769": 20663, "american": 2137, "newly": 4397, "##ouk": 27967, "hometown": 9627, "encompassing": 19129, "yin": 18208, "heir": 8215, "jem": 24193, "##ieg": 28872, "mutter": 23457, "measurements": 11702, "##avi": 18891, "0": 1014, "https": 16770, "etienne": 16821, "\u09b8": 1376, "ponytail": 18865, "hands": 2398, "morse": 17107, "medium": 5396, "57": 5401, "##gra": 17643, "nhs": 17237, "interval": 13483, "pole": 6536, "##mon": 8202, "markedly": 29295, "scanning": 13722, "##\u5143": 30295, "summoned": 11908, "somerset": 9198, "##ock": 7432, "##nberg": 11144, "johnstone": 24160, "intimidated": 28028, "sonic": 12728, "munoz": 23685, "segregated": 24382, "lagos": 16738, "geese": 28519, "1951": 4131, "navigable": 28538, "richard": 2957, "##aran": 20486, "frantic": 15762, "guadalupe": 23529, "bayern": 21350, "elves": 16980, "##yang": 12198, "##rigues": 22934, "##neas": 26737, "frustrated": 10206, "asa": 17306, "tombstone": 26671, "[unused268]": 273, "beds": 9705, "transports": 19003, "sudan": 10411, "97": 5989, "landings": 16805, "fabricated": 24212, "journalists": 8845, "1872": 7572, "penalties": 12408, "horns": 11569, "racer": 14878, "##ound": 28819, "##rous": 13288, "##ram": 6444, "historia": 19891, "##bine": 16765, "mixes": 21109, "sorted": 19616, "koreans": 24651, "segunda": 19071, "clears": 28837, "islamist": 27256, "dom": 14383, "shaped": 5044, "violence": 4808, "pony": 15606, "debated": 15268, "courageous": 26103, "##lithic": 28508, "##rail": 15118, "[unused371]": 376, "\u8a01": 1949, "35": 3486, "protections": 28548, "##stead": 25647, "another": 2178, "##jm": 24703, "[unused634]": 639, "bitterness": 22364, "token": 19204, "knife": 5442, "songwriting": 14029, "mid": 3054, "cunning": 23626, "[unused597]": 602, "specialized": 7772, "starter": 11753, "hourly": 21462, "apprentice": 13357, "##vary": 21639, "spill": 14437, "pain": 3255, "object": 4874, "##rangle": 21476, "##chfield": 22693, "145": 13741, "ludwig": 10302, "olivia": 7710, "heller": 25038, "somewhat": 5399, "##lices": 29146, "##escence": 28964, "##virus": 23350, "possessions": 13689, "desperately": 9652, "leg": 4190, "releases": 7085, "dso": 22951, "1958": 3845, "clouded": 26761, "guido": 20239, "fled": 6783, "template": 23561, "103": 9800, "##ber": 5677, "dispersal": 27602, "bourbon": 15477, "335": 24426, "##rch": 11140, "##rata": 14660, "chronicles": 11906, "differentiation": 20582, "irwin": 17514, "recalls": 17722, "exhibitions": 8596, "##nie": 8034, "##ede": 14728, "bat": 7151, "gust": 26903, "##ris": 6935, "prayers": 12583, "let": 2292, "bees": 13734, "[unused570]": 575, "##qa": 19062, "harrington": 19760, "alzheimer": 21901, "rendition": 19187, "##\u5e7f": 30368, "##\u092e": 29867, "runway": 9271, "##bla": 28522, "clifford": 13894, "recommendations": 11433, "crawling": 15927, "restrict": 21573, "impatient": 17380, "bipolar": 29398, "quicker": 19059, "simulate": 26633, "##ible": 7028, "connolly": 21018, "southend": 26104, "##\u2093": 30092, "58": 5388, "completion": 6503, "aids": 8387, "tobin": 28096, "decent": 11519, "looks": 3504, "chennai": 12249, "step": 3357, "##ragan": 28905, "thoroughly": 12246, "##ural": 11137, "indicative": 24668, "specializing": 14055, "nipples": 28124, "procession": 14385, "gritted": 17307, "[unused693]": 698, "either": 2593, "\u6cd5": 1901, "[unused576]": 581, "ia": 24264, "kam": 27829, "##rell": 16230, "experts": 8519, "mit": 10210, "##vara": 24516, "[unused433]": 438, "ways": 3971, "[unused575]": 580, "arab": 5424, "newfound": 27608, "craig": 7010, "greatly": 6551, "gong": 17242, "navarre": 21260, "[unused533]": 538, "haunting": 20161, "1838": 9931, "supplement": 12448, "corridor": 7120, "##hammer": 19742, "serbia": 7238, "cheyenne": 17778, "preparing": 8225, "sarcasm": 20954, "studying": 5702, "shout": 11245, "richardson": 9482, "nominees": 17853, "finishing": 5131, "outraged": 23558, "run": 2448, "[unused880]": 885, "lineage": 13321, "##\u3093": 30217, "mill": 4971, "##ex": 10288, "stiffened": 16090, "6": 1020, "advice": 6040, "resisting": 22363, "##osphere": 25444, "##rgan": 16998, "malcolm": 8861, "committing": 16873, "sinatra": 19643, "broadcast": 3743, "eased": 10987, "we": 2057, "bend": 8815, "\u2075": 1539, "##\u0b9a": 29919, "scaled": 18953, "[unused771]": 776, "winter": 3467, "sheltered": 18304, "248": 24568, "deepened": 20183, "scars": 13521, "supplied": 8127, "thank": 4067, "belle": 9852, "barrier": 8803, "corporal": 14265, "jungle": 8894, "cecilia": 18459, "jagged": 18187, "##rade": 13662, "##ali": 11475, "went": 2253, "##mum": 27147, "hearings": 19153, "##\u30a2": 30219, "##tta": 5946, "seven": 2698, "javier": 13824, "[unused795]": 800, "giacomo": 22873, "projecting": 18398, "##tead": 14565, "involves": 7336, "dusseldorf": 18160, "train": 3345, "fictional": 7214, "training": 2731, "##ocks": 25384, "drinking": 5948, "snort": 26759, "convince": 8054, "realms": 18814, "sincerely": 25664, "##cum": 24894, "susquehanna": 26361, "##gel": 12439, "##\u5bbf": 30352, "gabe": 12900, "##nded": 25848, "425": 23285, "328": 25256, "##23": 21926, "camera": 4950, "maximilian": 18838, "ram": 8223, "sliding": 8058, "waller": 23550, "patriot": 16419, "##marks": 27373, "spending": 5938, "processing": 6364, "jammu": 21433, "horatio": 27752, "##\u00a8": 29651, "##rard": 25561, "certain": 3056, "race": 2679, "airspace": 29357, "customary": 16120, "ib": 21307, "origin": 4761, "contradictory": 27894, "##oor": 16506, "##tland": 19270, "genocide": 14052, "vertigo": 28246, "kat": 10645, "##ility": 15148, "blanco": 20036, "maintaining": 8498, "dog": 3899, "waterfall": 14297, "highway": 3307, "tentative": 19943, "2017": 2418, "transmissions": 21670, "##amine": 19915, "dime": 27211, "wu": 8814, "manage": 6133, "\u0621": 1269, "wagons": 14525, "stats": 26319, "dillon": 14602, "massive": 5294, "jamal": 24132, "serves": 4240, "aforementioned": 17289, "prayer": 7083, "##\u30b7": 30232, "qu": 24209, "successes": 14152, "perform": 4685, "monkeys": 17059, "services": 2578, "departing": 15971, "fumble": 19576, "township": 3545, "##\u00bf": 29666, "learning": 4083, "##uet": 23361, "shetland": 25552, "silvery": 21666, "1666": 27407, "nairobi": 21124, "##gist": 24063, "block": 3796, "abused": 16999, "##\u2ebc": 30159, "##islav": 19834, "arabia": 9264, "##ku": 5283, "\uff1a": 1993, "1893": 6489, "cas": 25222, "dd": 20315, "##elman": 23830, "violate": 23640, "gaulle": 28724, "thread": 11689, "##writing": 18560, "1915": 4936, "chevy": 29009, "nagar": 16395, "##do": 3527, "downed": 20164, "sunglasses": 17072, "[unused908]": 913, "525": 25621, "##hine": 14014, "[unused827]": 832, "##hol": 14854, "creditors": 23112, "freaking": 13847, "ross": 5811, "##\u201e": 30060, "seth": 6662, "morally": 28980, "predicted": 10173, "hugh": 6621, "wow": 10166, "administer": 21497, "75": 4293, "chu": 14684, "##to": 3406, "##blood": 26682, "ally": 9698, "output": 6434, "##uck": 12722, "bases": 7888, "holders": 13304, "busted": 23142, "rangers": 7181, "##point": 8400, "[CLS]": 101, "dallas": 5759, "[unused418]": 423, "##say": 24322, "manipulation": 16924, "ngc": 27645, "seemingly": 9428, "defeats": 14222, "deposited": 14140, "concerts": 6759, "##gging": 12588, "[unused523]": 528, "supervisory": 26653, "\u308d": 1689, "chicago": 3190, "##ava": 12462, "luxurious": 20783, "jars": 25067, "[unused529]": 534, "phones": 11640, "except": 3272, "sexual": 4424, "##alia": 22786, "##jima": 19417, "cheltenham": 18763, "##cino": 21081, "scripts": 14546, "subjective": 20714, "fingernails": 21243, "securely": 28999, "mythology": 11327, "atlantic": 4448, "##[": 29634, "gmbh": 18289, "tapes": 13324, "##vered": 25896, "##tu": 8525, "technically": 10892, "drifting": 15013, "oak": 6116, "##utnant": 24620, "protagonist": 10191, "angled": 18756, "mormon": 15111, "1763": 18432, "function": 3853, "##rge": 20800, "seductive": 23182, "##arians": 28369, "hannibal": 24181, "[unused586]": 591, "lacks": 14087, "[unused36]": 37, "510": 23475, "peace": 3521, "sumner": 23922, "internationally": 7587, "anticipating": 26481, "archery": 21383, "peasant": 14539, "explores": 15102, "prediction": 17547, "tweed": 26922, "[unused20]": 21, "ethiopia": 11154, "feb": 13114, "valuation": 26004, "escort": 8620, "duff": 21019, "undead": 17315, "reworked": 27575, "##\u10e0": 29987, "expanded": 4423, "bonding": 19882, "competes": 14190, "\u6b66": 1889, "toilet": 11848, "##jou": 23099, "jen": 15419, "yuki": 24924, "##\u00a1": 29644, "join": 3693, "thankfully": 16047, "##ase": 11022, "lobster": 27940, "123": 13138, "prentice": 23429, "wyatt": 12986, "liszt": 26273, "chapels": 24130, "##lett": 20897, "norma": 20692, "[unused448]": 453, "156": 16734, "chelsea": 9295, "divert": 27345, "trinity": 7124, "glucose": 18423, "theodor": 21448, "mafia": 13897, "letting": 5599, "bath": 7198, "preparations": 12929, "nawab": 26543, "taft": 19911, "memoirs": 13251, "##ray": 9447, "auschwitz": 24363, "\u091f": 1320, "build": 3857, "buying": 9343, "##kh": 10023, "##\u2071": 30072, "clinic": 9349, "standing": 3061, "scenario": 11967, "hints": 20385, "##\u0291": 29703, "##lib": 29521, "reader": 8068, "eastman": 24252, "gardens": 5822, "mainstream": 7731, "##gins": 16529, "##rbin": 27366, "##vis": 11365, "teenagers": 12908, "philharmonic": 12355, "\u0925": 1324, "##ete": 12870, "ollie": 25208, "detroit": 5626, "[unused851]": 856, "##31": 21486, "hoax": 28520, "[unused354]": 359, "rockets": 12496, "##nch": 12680, "inspiration": 7780, "gulf": 6084, "pronouns": 26028, "denton": 23906, "participate": 5589, "sql": 29296, "westphalia": 22952, "##pis": 18136, "skeletons": 24365, "##aring": 22397, "eton": 21687, "engages": 24255, "##\u0925": 29860, "plaid": 26488, "[unused542]": 547, "flexed": 24244, "##boats": 19468, "debut": 2834, "##trom": 13887, "bubble": 11957, "##\u30e5": 30255, "december": 2285, "francesca": 15409, "##esthesia": 25344, "##unce": 17457, "##bread": 27035, "methane": 24481, "looted": 27775, "eyed": 7168, "48th": 27787, "##par": 19362, "\u0638": 1287, "2013": 2286, "pipes": 12432, "##lver": 26229, "##drome": 29171, "sur": 7505, "throws": 11618, "##isms": 22556, "notion": 9366, "fights": 9590, "denise": 15339, "##ife": 29323, "kade": 26159, "##dam": 17130, "med": 19960, "prep": 17463, "gustavo": 24801, "octopus": 24318, "powerhouse": 24006, "smirk": 15081, "skies": 15717, "##cb": 27421, "voice": 2376, "aristocratic": 19774, "bro": 22953, "wonders": 16278, "##dis": 10521, "snail": 10879, "[unused208]": 213, "epsilon": 28038, "##saka": 29289, "astrid": 27376, "cops": 10558, "mccann": 28641, "fences": 21549, "semi": 4100, "recruits": 15024, "lays": 19764, "linda": 8507, "##ington": 7853, "array": 9140, "relied": 13538, "dungeons": 20264, "\u05d0": 1241, "##oton": 25862, "##iy": 28008, "obama": 8112, "050": 28714, "##osition": 19234, "messenger": 11981, "slim": 11754, "stephanie": 11496, "##\u5f8c": 30372, "equally": 8053, "decreases": 17913, "##zuka": 22968, "07": 5718, "stick": 6293, "angus": 13682, "##sque": 17729, "incomplete": 12958, "reverted": 16407, "critics": 4401, "armada": 25306, "uk": 2866, "\u063a": 1289, "scott": 3660, "fades": 26784, "prohibits": 25822, "handball": 12378, "##ze": 4371, "headmaster": 16296, "miniature": 12973, "suits": 11072, "blankets": 15019, "tr": 19817, "lord": 2935, "1843": 10075, "snoop": 29044, "reactivated": 28577, "listing": 10328, "1016": 28707, "elevated": 8319, "landmark": 8637, "rosario": 17496, "coat": 5435, "frightening": 17115, "tone": 4309, "poster": 13082, "drugs": 5850, "catalyst": 16771, "[unused541]": 546, "##\u30aa": 30225, "##inus": 13429, "shaken": 16697, "\u05e2": 1259, "##nell": 9091, "pac": 14397, "red": 2417, "mixer": 23228, "driving": 4439, "ch": 10381, "kathryn": 20484, "kurdish": 15553, "273": 25371, "[unused161]": 166, "stylized": 19551, "belonged": 6272, "championship": 2528, "enlisted": 9417, "ev": 23408, "shiny": 12538, "artwork": 8266, "##\u5802": 30331, "predominantly": 9197, "colton": 21000, "##inge": 23496, "troopers": 26246, "procedure": 7709, "carrier": 6839, "passed": 2979, "shady": 22824, "dinners": 29236, "paige": 17031, "launches": 18989, "ny": 6396, "extracted": 15901, "throbbed": 27714, "bouts": 23666, "coding": 16861, "willie": 9893, "##wled": 28365, "cricketer": 9490, "drafted": 7462, "anarchy": 26395, "##rse": 22573, "##yd": 25688, "bjp": 24954, "34": 4090, "brussels": 9371, "faulkner": 25109, "dub": 12931, "honduras": 14373, "vested": 26003, "waterway": 23668, "crying": 6933, "\u4e0d": 1744, "sw": 25430, "tissues": 14095, "##gu": 12193, "foremost": 16097, "##ides": 8621, "namibia": 15408, "ari": 10488, "streamed": 18498, "jun": 12022, "significantly": 6022, "soluble": 24345, "##tri": 18886, "nonfiction": 25753, "science": 2671, "plasma": 12123, "burmese": 14468, "stalled": 20659, "corrected": 13371, "p": 1052, "rappers": 28257, "simpsons": 19047, "provocative": 26422, "##vances": 26711, "later": 2101, "fangs": 11738, "lodging": 26859, "##icia": 24108, "stiff": 10551, "demonstrates": 16691, "##ulation": 9513, "vent": 18834, "crawley": 28854, "platform": 4132, "stayed": 4370, "wood": 3536, "jealousy": 14225, "orbital": 13943, "##lus": 7393, "labyrinth": 24239, "biking": 28899, "##inal": 13290, "##gative": 26792, "recipient": 7799, "branched": 21648, "wealthiest": 27809, "##arian": 12199, "##\u5065": 30294, "29": 2756, "\u0986": 1348, "cello": 10145, "spawn": 25645, "##rika": 23778, "intellectual": 7789, "belmont": 17449, "##rma": 17830, "humorous": 14742, "wally": 18202, "overboard": 27089, "italianate": 25302, "wilkinson": 16237, "##dication": 25027, "raises": 13275, "inactivated": 15663, "inspecting": 29508, "manufacturers": 8712, "drain": 12475, "manchester": 5087, "employed": 4846, "rasped": 28459, "mentor": 10779, "##inkles": 28562, "reeling": 28515, "ceded": 19705, "enacted": 11955, "become": 2468, "limitations": 12546, "ten": 2702, "1741": 25280, "courtney": 14139, "erosion": 14173, "isaiah": 18850, "jorge": 10853, "replacement": 6110, "macedonian": 13037, "##nator": 27413, "archie": 13255, "newcomer": 16866, "[unused712]": 717, "shriek": 24795, "mountains": 4020, "laughs": 11680, "##sma": 26212, "##\u0628\u0627\u062f": 25799, "stays": 12237, "wry": 24639, "canadiens": 21247, "tubes": 10868, "jaime": 14519, "[unused930]": 935, "[unused981]": 986, "underlying": 10318, "luck": 6735, "sixteenth": 14683, "##hearted": 27693, "brows": 11347, "fatally": 26292, "overcome": 9462, "##late": 13806, "uses": 3594, "toes": 10393, "pereira": 23857, "##ception": 24422, "langley": 19094, "pee": 21392, "##\u30a4": 30221, "aleksandr": 24020, "aggression": 14974, "gettysburg": 22577, "##kos": 15710, "tough": 7823, "##cans": 26642, "lc": 29215, "used": 2109, "prohibited": 10890, "journeys": 19147, "es": 9686, "forming": 5716, "goose": 13020, "statehood": 28000, "##ignon": 24796, "waits": 18074, "##nation": 9323, "repaired": 13671, "comfortably": 18579, "hannover": 29209, "increases": 7457, "##vert": 16874, "=": 1027, "difficulties": 8190, "\u05e8": 1265, "parasite": 21198, "##lar": 8017, "pew": 29071, "nor": 4496, "thirteenth": 14725, "booker": 16674, "mix": 4666, "\u1103": 1457, "[unused513]": 518, "northernmost": 22037, "[unused504]": 509, "##nist": 26942, "grammatical": 24402, "##met": 11368, "financing": 12135, "[unused705]": 710, "invincible": 25018, "lucifer": 24184, "nuclei": 23767, "##\u6728": 30401, "glory": 8294, "facilitate": 10956, "declare": 13520, "ci": 25022, "##ff": 4246, "patients": 5022, "benito": 23595, "violating": 20084, "rolf": 23381, "mariners": 18049, "bodo": 28137, "wilbur": 26151, "rejected": 5837, "##codes": 23237, "parana": 28383, "ul": 17359, "##hn": 7295, "derivatives": 16942, "embrace": 9979, "denmark": 5842, "##gat": 20697, "faulty": 28927, "accountability": 17842, "discomfort": 17964, "toys": 10899, "##\u0268": 29684, "specialization": 28031, "skinned": 19937, "coa": 28155, "accusing": 16723, "newcastle": 8142, "wasted": 13842, "[unused469]": 474, "bahamas": 17094, "socrates": 26772, "unconstitutional": 20454, "##ayton": 29319, "programs": 3454, "##\u66f8": 30397, "catchment": 22865, "neurological": 23130, "##emann": 17545, "counters": 24094, "##14": 16932, "extend": 7949, "stair": 23788, "##chule": 20269, "feelings": 5346, "plotted": 27347, "deprived": 17676, "roam": 25728, "##view": 8584, "valle": 20171, "1842": 10008, "carlson": 22226, "conclusion": 7091, "92": 6227, "midday": 22878, "upward": 10745, "wanted": 2359, "[unused3]": 4, "ghosts": 11277, "aquatics": 26649, "osaka": 13000, "drafts": 28967, "clayton": 11811, "##crats": 23423, "##ishing": 21837, "evident": 10358, "pity": 12063, "events": 2824, "reddish": 14182, "prince": 3159, "balanced": 12042, "outlaws": 23107, "##bush": 22427, "conducted": 4146, "tomato": 20856, "1957": 3890, "recognize": 6807, "jonathan": 5655, "##mus": 7606, "inscriptions": 12920, "michel": 8709, "reforming": 29455, "susceptible": 18002, "petersen": 22615, "bauer": 17838, "mammal": 25476, "##\u27e8": 30155, "floyd": 12305, "isle": 8842, "gamma": 13091, "skulls": 21542, "princeton": 9173, "huts": 23326, "dexter": 14375, "rico": 7043, "##alic": 27072, "decorate": 29460, "greenberg": 24190, "reappeared": 23040, "##uz": 17040, "bernie": 15941, "##hila": 26415, "##\u209c": 30099, "smashing": 21105, "##co": 3597, "##eli": 20806, "envelope": 11255, "kenyan": 20428, "did": 2106, "managers": 10489, "announcer": 14073, "##bags": 26813, "cumulative": 23260, "bournemouth": 22882, "glover": 20012, "vegetable": 15415, "\u05d4": 1245, "escaping": 13002, "1993": 2857, "1910s": 28088, "biographer": 17121, "pathways": 16910, "##bas": 22083, "slipped": 5707, "1855": 8492, "bourgeois": 22846, "burnley": 23028, "##box": 8758, "greedy": 20505, "##lle": 6216, "rookie": 8305, "franchises": 22506, "scrambling": 25240, "even": 2130, "ethnic": 5636, "strewn": 25259, "automatic": 6882, "booth": 9065, "estimated": 4358, "153": 16710, "hobart": 14005, "overcame": 26463, "232": 20666, "shivering": 19197, "clarissa": 25260, "36": 4029, "\u5916": 1809, "##ime": 14428, "[unused116]": 121, "[unused767]": 772, "[unused60]": 61, "\u026c": 1121, "\u208e": 1559, "\u21d2": 1591, "rank": 4635, "[unused382]": 387, "stirling": 15597, "##\u0638": 29829, "activist": 7423, "thorn": 16337, "rhys": 13919, "nokia": 22098, "##hmi": 26837, "##12": 12521, "grooves": 25880, "harmonies": 28594, "##35": 19481, "##ati": 10450, "sporadic": 24590, "investigation": 4812, "##\u00dfe": 17499, "afl": 10028, "barons": 21487, "[unused160]": 165, "\uff5e": 1995, "1757": 22621, "ndp": 21915, "equestrian": 19191, "reese": 15883, "lifts": 13695, "##tute": 24518, "panted": 28149, "piss": 18138, "loyalists": 26590, "##acious": 20113, "craters": 27561, "juliette": 24696, "jackson": 4027, "longitudinal": 20134, "patricia": 10717, "endangered": 10193, "##yana": 16811, "##ert": 8743, "kilometres": 3717, "[unused585]": 590, "##ailing": 29544, "##kk": 19658, "##lter": 21928, "documented": 8832, "capitalism": 16498, "shops": 7340, "sorority": 27600, "##av": 11431, "battalions": 10157, "localized": 22574, "[unused223]": 228, "\u5c71": 1831, "##ez": 9351, "arid": 17511, "##tsa": 27110, "acacia": 24766, "carbon": 6351, "##aha": 23278, "##vc": 25465, "complexion": 28838, "biographies": 22056, "feeds": 14172, "##uki": 14228, "##buck": 24204, "blazing": 17162, "##ony": 16585, "onto": 3031, "laps": 10876, "210": 12875, "pumpkin": 25730, "greenland": 16128, "##omo": 19506, "1745": 21809, "carry": 4287, "##cting": 11873, "[unused750]": 755, "proton": 20843, "abd": 19935, "mastery": 26364, "1879": 7449, "live": 2444, "off": 2125, "illegally": 17800, "sb": 24829, "containing": 4820, "rack": 14513, "boredom": 29556, "wolves": 8588, "baghdad": 13952, "[unused743]": 748, "sera": 26358, "spanning": 13912, "nottinghamshire": 20126, "restructuring": 18322, "[unused892]": 897, "drift": 11852, "germany": 2762, "1937": 4347, "##\u0996": 29890, "fifth": 3587, "pose": 13382, "milestone": 19199, "\u2154": 1582, "\u028c": 1134, "meaningless": 25120, "[unused460]": 465, "##ffa": 20961, "contestants": 10584, "ether": 28855, "##opa": 29477, "mediation": 26435, "mrs": 3680, "groin": 20092, "equator": 26640, "##\u1107": 29996, "investing": 19920, "oscar": 7436, "lifeboat": 23450, "continue": 3613, "##\u529b": 30304, "tho": 27793, "versions": 4617, "donegal": 25415, "richest": 18429, "don": 2123, "individually": 14258, "convent": 10664, "invite": 13260, "portals": 27388, "prick": 24858, "reviewer": 12027, "heck": 17752, "stretching": 10917, "##atz": 20501, "jewellery": 21545, "risk": 3891, "shots": 7171, "defending": 6984, "##\u30ad": 30227, "chest": 3108, "summer": 2621, "garry": 21507, "##\u09a8": 29902, "koppen": 20139, "merchants": 10310, "##meister": 28824, "##good": 24146, "##nto": 13663, "soils": 13622, "enactment": 26465, "\u09ae": 1370, "##mark": 10665, "veterans": 8244, "dolly": 19958, "correctly": 11178, "2021": 25682, "impact": 4254, "calf": 19134, "##rence": 24413, "weakened": 11855, "pursed": 21954, "norse": 15342, "nausea": 19029, "ep": 4958, "acidic": 24171, "alert": 9499, "nationality": 10662, "reprinted": 13603, "strip": 6167, "conventional": 7511, "1911": 5184, "cameras": 8629, "##class": 26266, "brody": 19631, "patel": 20455, "fastened": 24009, "alerted": 22333, "margarita": 24570, "progress": 5082, "considerations": 16852, "angel": 4850, "##\u057d": 29781, "thump": 21324, "[unused467]": 472, "outsider": 21002, "\u00ba": 1089, "##ok": 6559, "##\u03b7": 24824, "impacts": 14670, "freezing": 12809, "pledged": 16970, "notions": 21951, "maze": 15079, "bait": 17395, "slots": 19832, "meredith": 10635, "siegfried": 25948, "##ennial": 22929, "##\u5357": 30311, "burnt": 11060, "spaced": 19835, "argue": 7475, "ying": 20879, "terrorists": 15554, "##vd": 16872, "handkerchief": 23975, "specimens": 9908, "league": 2223, "visitation": 28877, "\u5317": 1781, "poznan": 18320, "##\u207b": 30079, "escaped": 6376, "abbot": 11428, "fortification": 23050, "\u738b": 1909, "attackers": 17857, "concentration": 6693, "\u05d7": 1248, "[unused739]": 744, "tanks": 7286, "attracted": 6296, "reward": 10377, "##omic": 22026, "favorite": 5440, "rainbow": 10098, "mariana": 22097, "homework": 19453, "depart": 18280, "[unused800]": 805, "count": 4175, "##dorf": 11592, "##vsky": 15904, "\u1173": 1481, "pitching": 14696, "tal": 21368, "clocks": 20940, "streamlined": 29445, "girlfriends": 27408, "village": 2352, "featherweight": 27145, "manila": 9011, "scalp": 21065, "irvine": 16272, "le": 3393, "incompatible": 25876, "accents": 24947, "synthesis": 10752, "cisco": 26408, "##aday": 28039, "overwhelming": 10827, "slant": 27474, "beethoven": 15461, "leaf": 7053, "##\u5c0f": 30355, "pga": 14198, "tenderness": 24605, "##\u0906": 29848, "implementation": 7375, "musical": 3315, "anchors": 24674, "%": 1003, "##9th": 25660, "spire": 19823, "jeopardy": 26604, "driven": 5533, "cloud": 6112, "##gart": 27378, "##\u0647": 14157, "saturated": 23489, "pasha": 14292, "##recht": 28109, "package": 7427, "eli": 12005, "barred": 15605, "mutiny": 19306, "averaging": 14985, "digits": 16648, "##ias": 7951, "##sher": 19603, "legislators": 22680, "##h": 2232, "gonzales": 24334, "vikings": 13468, "obsessed": 15896, "shelly": 28360, "bypass": 11826, "impossible": 5263, "chicks": 20649, "chapter": 3127, "madison": 7063, "[unused270]": 275, "##lm": 13728, "gentry": 20262, "wins": 5222, "colin": 6972, "##lham": 25968, "kindly": 19045, "[unused931]": 936, "690": 28066, "hungary": 5872, "harbour": 7440, "talented": 10904, "1632": 28216, "pm": 7610, "luisa": 25412, "colorado": 5169, "peat": 23366, "##igny": 26978, "##\u057f": 29783, "bounded": 10351, "populous": 20151, "specific": 3563, "\u2081": 1548, "halfway": 8576, "springfield": 10493, "induced": 10572, "ponds": 16879, "potsdam": 26554, "calvert": 24800, "submit": 12040, "inspiring": 18988, "excess": 9987, "##lga": 27887, "alla": 25699, "reich": 14365, "atmospheric": 12483, "\u8cb4": 1953, "##\u4e4b": 30275, "winkler": 20472, "satan": 16795, "upgraded": 9725, "phrase": 7655, "##tious": 20771, "[unused88]": 89, "discussion": 6594, "ek": 23969, "arcadia": 25178, "nudged": 18666, "national": 2120, "handles": 16024, "reelection": 17648, "1919": 4529, "experimented": 20918, "struggled": 6915, "airplay": 15341, "disapproval": 21406, "peruvian": 15432, "funnel": 25102, "##ira": 7895, "attention": 3086, "journal": 3485, "##rio": 9488, "bruised": 18618, "column": 5930, "##j": 3501, "detectors": 25971, "staple": 18785, "1927": 4764, "birds": 5055, "stains": 27094, "concert": 4164, "victory": 3377, "325": 19652, "hogan": 14851, ";": 1025, "mark": 2928, "rory": 14285, "faint": 8143, "550": 13274, "frederic": 15296, "asphalt": 16295, "somalia": 14717, "bankers": 25375, "arthritis": 27641, "900": 7706, "ore": 10848, "suppressed": 13712, "ignition": 17446, "\u6797": 1881, "approx": 22480, "swollen": 13408, "##rdy": 17460, "401": 22649, "##ties": 7368, "ares": 23631, "##\u0430": 10260, "##bing": 10472, "##\u308d": 30215, "dark": 2601, "##masters": 27751, "devastating": 14886, "narrated": 17356, "dynamic": 8790, "postal": 10690, "reduced": 4359, "staying": 6595, "achievements": 10106, "gave": 2435, "liking": 16663, "internal": 4722, "ibrahim": 13477, "telecommunication": 25958, "sudden": 5573, "newcomers": 24159, "strain": 10178, "champaign": 28843, "convictions": 20488, "align": 25705, "##lord": 19980, "265": 20549, "[unused245]": 250, "extensively": 8077, "harmon": 25546, "##inga": 28234, "##ral": 7941, "269": 25717, "descending": 15127, "ties": 7208, "criticism": 6256, "blanca": 27538, "##hell": 18223, "absolutely": 7078, "\u2116": 1578, "\u099c": 1358, "bosnian": 16163, "[unused326]": 331, "brendan": 15039, "yeast": 21957, "terrific": 27547, "goddamn": 16477, "uniformly": 27423, "brett": 12049, "brooke": 11535, "ahead": 3805, "promises": 10659, "embark": 28866, "##oke": 11045, "bucket": 13610, "sport": 4368, "diaspora": 18239, "very": 2200, "attribute": 17961, "tops": 13284, "brake": 13428, "mandir": 22700, "##crest": 25313, "##_": 29638, "venerable": 24541, "##dly": 18718, "1888": 6690, "licking": 17033, "[unused559]": 564, "##ntine": 26730, "1712": 28460, "melee": 27868, "##oi": 10448, "exploring": 11131, "##lik": 18393, "boots": 6879, "honeymoon": 19227, "gil": 13097, "develop": 4503, "hari": 21291, "commands": 10954, "communism": 15523, "dams": 17278, "nov": 13292, "60s": 20341, "##ker": 5484, "referencing": 28789, "adrian": 7918, "derby": 7350, "##beau": 26401, "despised": 26626, "gallant": 26984, "\u0637": 1286, "collection": 3074, "girls": 3057, "[unused602]": 607, "abandoned": 4704, "##yl": 8516, "reclamation": 27389, "chopin": 25479, "##tya": 21426, "deleted": 17159, "##xton": 14226, "##ary": 5649, "welded": 29014, "information": 2592, "##kas": 13716, "215": 17405, "dayton": 14700, "withdrawn": 9633, "lucky": 5341, "psi": 17816, "genera": 11416, "orbiting": 26472, "relying": 18345, "poison": 9947, "##kki": 24103, "skinny": 15629, "easier": 6082, "1752": 24736, "\u116f": 1479, "survivors": 8643, "courses": 5352, "ape": 23957, "tastes": 16958, "phrases": 15672, "along": 2247, "widow": 7794, "1802": 13515, "esteem": 19593, "representation": 6630, "costs": 5366, "cong": 26478, "contempt": 17152, "##bius": 17028, "##ign": 23773, "freestyle": 9817, "affects": 13531, "##books": 17470, "ark": 15745, "bore": 8501, "approaching": 8455, "61": 6079, "argent": 23157, "[unused462]": 467, "laude": 21602, "sincere": 18006, "embroidered": 23590, "rockwell": 25235, "eki": 23174, "promotions": 15365, "1977": 3355, "##\u063a": 29831, "shape": 4338, "stove": 16247, "hove": 25215, "louise": 8227, "##oses": 27465, "aerospace": 13395, "##lifting": 26644, "tumors": 21434, "landau": 28570, "harold": 7157, "cu": 12731, "marry": 5914, "[unused286]": 291, "cameo": 12081, "##bag": 16078, "sacrament": 28958, "governors": 11141, "western": 2530, "bethlehem": 19360, "hastily": 15789, "##llie": 23697, "wonderful": 6919, "gallagher": 17297, "winslow": 26600, "satire": 18312, "cavern": 16679, "vidhan": 28590, "jaw": 5730, "undefeated": 15188, "##\u5e1d": 30364, "\u2194": 1587, "##gingly": 28392, "rebounds": 11049, "thrash": 27042, "attended": 3230, "positions": 4460, "squid": 26852, "grounds": 5286, "##ors": 5668, "##row": 10524, "d": 1040, "motionless": 19917, "crowe": 25657, "##lind": 27164, "##bell": 17327, "##dran": 24914, "te": 8915, "answer": 3437, "parole": 17393, "handful": 9210, "skating": 10080, "belize": 18867, "[unused620]": 625, "mouthful": 28462, "britten": 29429, "functioning": 12285, "100th": 16919, "employees": 5126, "##\u300a": 30165, "lottery": 15213, "tavern": 13090, "nickelodeon": 20814, "platt": 28005, "##\u99ac": 30506, "bassist": 9858, "[unused510]": 515, "weathered": 28445, "##eche": 27635, "[unused203]": 208, "aiming": 13659, "clan": 6338, "hoop": 27669, "travelled": 7837, "munitions": 21061, "classification": 5579, "legions": 23269, "##das": 8883, "targeting": 14126, "gilbert": 7664, "##fm": 16715, "das": 8695, "nutrient": 26780, "make": 2191, "exeter": 12869, "onions": 24444, "augusto": 29085, "##thor": 27844, "##vers": 14028, "\u03b7": 1161, "##shu": 14235, "fairy": 8867, "motivated": 12774, "ellington": 21630, "priorities": 18402, "uci": 14504, "featuring": 3794, "market": 3006, "lambert": 12838, "royal": 2548, "##oia": 25463, "necessarily": 9352, "carlo": 9758, "accused": 5496, "underneath": 7650, "motioned": 13054, "yokohama": 20507, "##vn": 16022, "hanging": 5689, "belfast": 10330, "smelling": 19773, "jai": 17410, "eurovision": 12714, "amore": 26297, "roman": 3142, "jia": 25871, "fours": 23817, "60th": 20928, "novo": 24576, "greyhound": 21220, "orb": 19607, "underwater": 11564, "routes": 5847, "334": 29562, "##zes": 11254, "arboretum": 25197, "feminism": 20050, "##ache": 15395, "twigs": 27964, "erwin": 22209, "participants": 6818, "electrification": 23679, "zenith": 28672, "disneyland": 25104, "stone": 2962, "augusta": 13635, "outnumbered": 21943, "characters": 3494, "stalking": 20070, "collarbone": 29600, "articulated": 20742, "lookout": 19052, "##pala": 19636, "##ncies": 14767, "starting": 3225, "stares": 14020, "exceeds": 23651, "harvested": 22629, "##zhou": 9791, "pasture": 20787, "tuck": 18029, "exchequer": 28889, "appalachian": 19682, "trait": 18275, "f": 1042, "futuristic": 28971, "##uated": 16453, "proven": 10003, "dennis": 6877, "regarding": 4953, "flashes": 16121, "millionaire": 19965, "societal": 23382, "##vard": 25911, "dependence": 18642, "remaining": 3588, "proficiency": 26293, "##hire": 20908, "northampton": 15944, "lads": 29126, "##\u0452": 29758, "ravaged": 25537, "mater": 16289, "myra": 23020, "cox": 9574, "##\u6b66": 30415, "pd": 22851, "##ander": 12243, "midtown": 27219, "bladed": 27402, "##9": 2683, "romano": 22070, "zoological": 26168, "softened": 16573, "intervals": 14025, "singh": 5960, "\u3072": 1673, "arcade": 10877, "##kumar": 18494, "pantheon": 24152, "conversations": 11450, "decca": 21079, "[unused353]": 358, "abstract": 10061, "temples": 8436, "asteroid": 12175, "portable": 12109, "lectured": 19206, "suspicion": 10928, "kyiv": 25669, "aqueduct": 24016, "antibiotics": 24479, "unionist": 17104, "bahadur": 21715, "scenery": 17363, "positively": 13567, "mate": 6775, "varies": 9783, "##hesive": 21579, "saskatoon": 25447, "twenties": 18946, "improvements": 8377, "\u98a8": 1977, "retreated": 11672, "precinct": 18761, "##sop": 28793, "professionals": 8390, "hughes": 8099, "vis": 25292, "lent": 15307, "dodd": 21258, "languages": 4155, "##pheus": 22809, "smacked": 19203, "kinase": 21903, "pyrenees": 22696, "las": 5869, "racecourse": 15948, "expansion": 4935, "##\u208a": 30086, "replay": 15712, "whitish": 16800, "statutes": 18574, "sustaining": 22663, "constitutional": 6543, "bombers": 10544, "##ule": 9307, "andrei": 18125, "twinkle": 29038, "motorsport": 21044, "1859": 8165, "convincing": 13359, "theory": 3399, "##oz": 18153, "evangelical": 11295, "##uw": 25974, "tad": 18819, "olds": 19457, "crimean": 20516, "concerto": 10405, "teach": 6570, "honneur": 28197, "\u30e3": 1728, "tourist": 7538, "##bry": 25731, "remembrance": 19451, "practice": 3218, "constitutes": 17367, "hungarian": 5588, "##ipe": 15457, "\u4e3b": 1747, "tsunami": 19267, "focal": 15918, "##hosis": 25229, "isbn": 3175, "wilde": 18575, "belgrade": 10291, "rays": 9938, "\u0255": 1113, "##tina": 13770, "centered": 8857, "##vino": 26531, "regulator": 21618, "mars": 7733, "oracle": 14721, "breaststroke": 28164, "falcon": 11684, "hitchcock": 19625, "richmond": 6713, "##mmer": 15810, "wasting": 18313, "inclusive": 18678, "##uis": 27020, "\u0ba4": 1385, "diana": 8805, "engraving": 23501, "magical": 8687, "vents": 28287, "peaceful": 9379, "biting": 12344, "ounce": 19471, "crypt": 19888, "chung": 15972, "\u5bbf": 1826, "alex": 4074, "hui": 17504, "distribution": 4353, "##ting": 3436, "chaotic": 19633, "##eger": 26320, "sahib": 23513, "[unused97]": 98, "##]": 29636, "imported": 10964, "bush": 5747, "calculated": 10174, "cardboard": 19747, "##\u5fa1": 30373, "exemption": 19621, "##mer": 5017, "exploration": 8993, "farmer": 7500, "winner": 3453, "##uce": 18796, "epic": 8680, "##glio": 29480, "##nio": 27678, "##llet": 22592, "bk": 23923, "##ater": 24932, "bowler": 14999, "##take": 15166, "oaks": 13396, "whenever": 7188, "reached": 2584, "cured": 21391, "discreet": 29321, "interventions": 19388, "synonymous": 22594, "committee": 2837, "1699": 28718, "viewpoint": 21386, "implant": 27159, "b1": 29491, "##forth": 15628, "night": 2305, "mustang": 18851, "espana": 20678, "comic": 5021, "ernest": 8471, "colloquially": 23992, "##tees": 28313, "incident": 5043, "##ify": 8757, "1648": 22533, "nun": 16634, "complement": 13711, "anthropological": 28395, "enrique": 15769, "##nova": 13455, "account": 4070, "walks": 7365, "##kim": 21138, "ortega": 25859, "##ikh": 28209, "fir": 21554, "paradigm": 20680, "pad": 11687, "healy": 25706, "warlock": 28861, "##\u092c": 29865, "tq": 28816, "strangled": 21384, "propelled": 15801, "##dia": 9032, "cheer": 15138, "ruining": 27853, "objective": 7863, "fixed": 4964, "captained": 16041, "suspects": 13172, "wingspan": 9635, "vibe": 21209, "napkin": 20619, "bosch": 25936, "tributaries": 15777, "skater": 18815, "##vati": 20203, "arises": 18653, "##\u4e00": 30266, "nelly": 29498, "advise": 18012, "glorious": 14013, "##\u5ddd": 30361, "wiped": 8342, "drown": 19549, "##eke": 23941, "218": 20741, "aarhus": 29173, "genus": 3562, "illuminating": 27816, "pro": 4013, "1865": 6725, "\u0640": 1290, "tension": 6980, "\u767d": 1915, "[unused797]": 802, "drove": 5225, "accredited": 11459, "cords": 24551, "stade": 15649, "\u03bc": 1166, "355": 26271, "eruptions": 28448, "##ians": 7066, "adoptive": 24787, "redevelopment": 15582, "overture": 25052, "##sul": 23722, "sermon": 18408, "upper": 3356, "239": 23688, "##cius": 25393, "buff": 23176, "galicia": 19017, "##hwa": 18663, "jr": 3781, "##une": 9816, "marred": 24563, "resignation": 8172, "filipino": 10275, "camps": 7958, "rifles": 9494, "comparison": 7831, "##rick": 11285, "##skaya": 23070, "atlantis": 16637, "[unused735]": 740, "hissed": 11402, "osborne": 16732, "rediscovered": 26733, "operas": 14281, "noticeably": 25327, "##32": 16703, "hygiene": 19548, "collections": 6407, "horseshoe": 23449, "benton": 18685, "wastewater": 28269, "136": 15407, "buddies": 24115, "monitor": 8080, "##ques": 10997, "keepers": 24018, "worrying": 15366, "greenish": 23753, "apostolic": 11815, "fairfax": 17833, "reformed": 9114, "[unused426]": 431, "convection": 23849, "employing": 15440, "columbian": 25882, "gutierrez": 20836, "overlooking": 12549, "fined": 16981, "\u306d": 1670, "temps": 29023, "[unused94]": 95, "salty": 23592, "triangular": 14023, "railroads": 16197, "buccaneers": 21629, "daggers": 24210, "grim": 11844, "marius": 20032, "presley": 17229, "##plication": 21557, "unlock": 19829, "frances": 10360, "##leader": 19000, "prospects": 16746, "\u96c4": 1974, "millimetres": 13388, "\u9593": 1969, "exclusive": 7262, "yellowish": 17804, "lockheed": 17646, "8": 1022, "determining": 12515, "danielle": 18490, "cypriot": 18543, "montrose": 24990, "lydia": 14076, "beit": 28236, "##tti": 6916, "##omp": 25377, "involve": 9125, "##lea": 19738, "filippo": 28669, "europeans": 13481, "[unused147]": 152, "##iculate": 24153, "refuse": 10214, "##media": 16969, "undone": 25757, "ernesto": 22428, "revolving": 24135, "slovenia": 10307, "bullshit": 14636, "coating": 18898, "catalonia": 16711, "\u306a": 1667, "lowe": 14086, "jake": 5180, "##bos": 15853, "46": 4805, "spying": 22624, "dryly": 20825, "chaplain": 14011, "records": 2636, "martial": 7761, "1860s": 15914, "anthony": 4938, "mustered": 21900, "[unused802]": 807, "would": 2052, "twitch": 19435, "hates": 16424, "ham": 10654, "plaster": 15673, "##stle": 22516, "##itors": 27287, "##\u2154": 30110, "##tage": 26702, "##cr": 26775, "theorem": 9872, "harrisburg": 24569, "danced": 10948, "elders": 13376, "##\u5f18": 30369, "remains": 3464, "ineffective": 20694, "##\u04cf": 29765, "##sion": 10992, "##urne": 21737, "constellation": 15300, "jose": 4560, "133": 14506, "phillip": 10852, "webber": 19861, "dance": 3153, "##ssel": 21218, "new": 2047, "\u5dff": 1837, "[unused522]": 527, "sealed": 10203, "vacant": 10030, "bolivia": 11645, "coinage": 25396, "scope": 9531, "consular": 27326, "##won": 19291, "tavi": 24283, "honours": 8762, "brewer": 18710, "disclosure": 19380, "emergence": 14053, "##nium": 14907, "disorder": 8761, "intuition": 26406, "##eh": 11106, "rum": 19379, "clearer": 24509, "torment": 21741, "lal": 21348, "overlooked": 17092, "watches": 12197, "sick": 5305, "friends": 2814, "turf": 14585, "##scoe": 28147, "##mable": 24088, "40": 2871, "kahn": 19361, "manipulated": 20063, "casts": 23942, "[unused96]": 97, "hospital": 2902, "##oss": 15094, "strawberry": 16876, "n": 1050, "son": 2365, "forceful": 28552, "##ant": 4630, "waste": 5949, "rudolph": 18466, "##sir": 29481, "zero": 5717, "##ishly": 19983, "##\u0142a": 22972, "tc": 22975, "raped": 15504, "symphony": 6189, "doses": 21656, "1978": 3301, "##\u897f": 30473, "[unused301]": 306, "incarnation": 15715, "tuna": 24799, "[unused257]": 262, "##bra": 10024, "somehow": 5064, "##gul": 24848, "##ands": 29560, "##rons": 28212, "canadians": 16485, "##estra": 26199, "stabilize": 27790, "sponsors": 13162, "disdain": 25134, "famine": 15625, "tally": 19552, "##carbon": 26190, "##hara": 11077, "journals": 9263, "##rane": 18053, "epa": 19044, "##dal": 9305, "lexie": 24123, "patio": 19404, "##some": 14045, "brisk": 28022, "##edes": 18352, "aggravated": 25817, "pilgrim": 21214, "commuter": 14334, "adventurer": 29506, "erase": 22505, "##uri": 9496, "owes": 24381, "fixture": 15083, "poultry": 22468, "busy": 5697, "theologian": 17200, "beijing": 7211, "##ad": 4215, "fist": 7345, "pyramid": 11918, "shouting": 11273, "facilities": 4128, "claire": 6249, "terribly": 16668, "tunisian": 22946, "sad": 6517, "municipalities": 7602, "humphrey": 15462, "square": 2675, "grave": 6542, "drinks": 8974, "hurricanes": 17035, "much": 2172, "fisted": 28273, "shortages": 22623, "clockwise": 22839, "xiang": 27735, "hee": 18235, "convertible": 22840, "providing": 4346, "##uche": 19140, "##\u6c5f": 30423, "##ond": 15422, "telecom": 18126, "##wer": 13777, "technological": 10660, "deportation": 23702, "##iani": 25443, "claw": 15020, "curves": 10543, "example": 2742, "blasted": 18461, "disclosed": 21362, "##scia": 27210, "del": 3972, "relocating": 26811, "motorized": 26172, "1928": 4662, "sutra": 26567, "floating": 8274, "##mussen": 29134, "arkansas": 6751, "knee": 6181, "surpassing": 27097, "diesel": 7937, "norman": 5879, "##wari": 20031, "rna": 12987, "anti": 3424, "banded": 25264, "sharing": 6631, "three": 2093, "savior": 24859, "sheds": 25999, "lexington": 14521, "##uder": 29190, "##\u2089": 30085, "\u10d4": 1442, "dollar": 7922, "advisers": 24205, "wrestled": 20615, "wanderers": 14237, "dried": 9550, "relate": 14396, "tasting": 18767, "jimmie": 24671, "natural": 3019, "##yla": 23943, "##\u1169": 30011, "[unused740]": 745, "noticing": 15103, "##uity": 18518, "iaaf": 21259, "botanical": 13194, "tara": 10225, "[unused332]": 337, "protects": 18227, "##wana": 21761, "\u2606": 1621, "advising": 23875, "##\u535a": 30312, "##grants": 27444, "scrap": 15121, "medina": 15761, "outward": 15436, "faculty": 4513, "lumpur": 17761, "redding": 26687, "strictly": 9975, "christoph": 21428, "##ta": 2696, "julius": 10396, "hewitt": 19482, "lasers": 23965, "send": 4604, "fetal": 25972, "ren": 14916, "indirectly": 17351, "saetan": 23515, "helena": 10269, "compilations": 22754, "ymca": 26866, "evaluate": 16157, "art": 2396, "troubles": 13460, "learnt": 20215, "[unused703]": 708, "opium": 21075, "counter": 4675, "jiang": 20613, "indication": 12407, "##\u0f0d": 29961, "mans": 16042, "squads": 20191, "abandonment": 22290, "##roller": 26611, "kannada": 13873, "module": 11336, "lullaby": 29149, "cruising": 22206, "surprise": 4474, "stepmother": 26959, "patrice": 29527, "outfielder": 21033, "freight": 8441, "immensely": 24256, "rhone": 22351, "layered": 21323, "\u529b": 1778, "emotion": 7603, "brigade": 4250, "glamorgan": 23861, "intermittent": 23852, "originated": 7940, "dinah": 26562, "botswana": 19414, "##der": 4063, "clustered": 25221, "512": 24406, "knees": 5042, "adapt": 15581, "peeked": 18652, "##nes": 5267, "makeup": 5789, "omar": 13192, "sanity": 20039, "similar": 2714, "1786": 17436, "\u3088": 1684, "ultimately": 4821, "angola": 13491, "##nally": 26827, "##imating": 22835, "emblem": 16199, "bodyguards": 25681, "[unused807]": 812, "house": 2160, "chairperson": 19072, "poisoned": 17672, "##ilde": 23891, "##ggle": 24679, "smell": 5437, "clicks": 29225, "\u10d7": 1444, "reunited": 11653, "portland": 6734, "barefoot": 22985, "sanctuary": 8493, "##cam": 28727, "carmine": 18791, "fledged": 26712, "fit": 4906, "cooking": 8434, "[unused878]": 883, "toast": 15174, "crore": 21665, "sword": 4690, "\u30ed": 1735, "vote": 3789, "ea": 19413, "memorial": 3986, "directorate": 13634, "1924": 4814, "hydra": 26018, "1853": 8933, "patches": 13864, "cylinder": 7956, "nonprofit": 14495, "exclaimed": 12713, "debating": 20767, "##\u5409": 30319, "decommissioned": 14394, "##isha": 24032, "milano": 21613, "rightful": 27167, "godzilla": 26631, "[unused471]": 476, "novelist": 9974, "##hip": 5605, "import": 12324, "circumstance": 25652, "pounds": 7038, "chatting": 22331, "uttered": 20947, "influence": 3747, "adams": 5922, "##sure": 28632, "##\u0995": 29889, "[unused288]": 293, "compare": 12826, "bernstein": 18862, "reborn": 24910, "##chio": 23584, "mohamed": 14467, "chavez": 16860, "obscene": 27744, "implicated": 20467, "##\u653f": 30386, "##ash": 11823, "##atal": 27815, "[unused599]": 604, "awe": 15180, "strauss": 16423, "curb": 13730, "longer": 2936, "##hur": 24572, "reece": 24227, "leaked": 15748, "##systems": 29390, "[unused707]": 712, "healthy": 7965, "dismissed": 7219, "bitten": 19026, "[unused704]": 709, "##jured": 26949, "contradiction": 26917, "dockyard": 24874, "##rated": 9250, "netball": 25034, "joshi": 26645, "frogs": 17582, "fulbright": 26695, "inning": 12994, "demos": 18267, "##\u0292": 29704, "deacon": 14845, "lo": 8840, "finals": 4399, "##\u1d57": 30041, "\u0279": 1125, "comply": 14037, "explore": 8849, "fitting": 11414, "watershed": 12547, "fitness": 10516, "[unused158]": 163, "amphibious": 16182, "juicy": 28900, "liam": 8230, "releasing": 8287, "unpaid": 23850, "passports": 19494, "clone": 17598, "newer": 10947, "##ddled": 28090, "subconscious": 27952, "metis": 26057, "##ro": 3217, "protege": 28567, "##pp": 9397, "[unused439]": 444, "member": 2266, "carlos": 5828, "champagne": 12327, "breaking": 4911, "encouragement": 15846, "judah": 23022, "elevation": 6678, "abraham": 8181, "celtic": 8730, "tiles": 13262, "[unused251]": 256, "citation": 11091, "connects": 8539, "grossed": 17500, "##\u0ba9": 29923, "1990s": 4134, "##cta": 25572, "##nting": 24360, "contrasted": 22085, "enchanted": 22454, "demographic": 15982, "smoothed": 17966, "implementations": 24977, "palestinians": 21524, "intention": 6808, "discussing": 10537, "##lts": 21593, "endemic": 7320, "vapor": 20064, "##\u0250": 29676, "bonnie": 12220, "vampires": 6144, "noting": 9073, "##\u4ee3": 30286, "removing": 9268, "yards": 4210, "suggestion": 10293, "slogan": 14558, "##mental": 26901, "gandhi": 12338, "braves": 13980, "keyboard": 9019, "##mont": 9629, "[unused986]": 991, "plantations": 14979, "##mist": 23738, "mosque": 8806, "facade": 8508, "advocating": 20324, "##kt": 25509, "importantly": 14780, "##bow": 18912, "silesia": 21872, "\u0f58": 1432, "yet": 2664, "joining": 5241, "hitler": 8042, "dug": 8655, "sanskrit": 11353, "##crat": 23185, "gambia": 26728, "grimsby": 24470, "##\u30b5": 30231, "anand": 18887, "emerge": 12636, "##ja": 3900, "##\u98df": 30504, "[unused525]": 530, "voted": 5444, "gaps": 16680, "cesare": 26708, "^": 1034, "shawn": 13218, "wounded": 5303, "[unused901]": 906, "fernando": 9158, "elm": 17709, "effect": 3466, "maryland": 5374, "mortimer": 17416, "katrina": 16864, "##antes": 24985, "gustave": 27973, "electrified": 18042, "fur": 6519, "choir": 6596, "rogue": 12406, "boxer": 10423, "icao": 18055, "blouse": 18149, "##ingly": 15787, "laval": 26205, "comparatively": 20172, "symbolism": 22050, "translit": 28468, "1930": 4479, "##sters": 15608, "##\u09b7": 29911, "installations": 14111, "[unused919]": 924, "tasmanian": 21394, "achievement": 6344, "based": 2241, "##\u03bf\u03c2": 15297, "##lide": 24198, "gleam": 24693, "error": 7561, "forecast": 19939, "##tek": 23125, "generally": 3227, "##\u2074": 30073, "660": 20982, "\u0447": 1202, "masks": 15806, "##pper": 18620, "des": 4078, "inn": 7601, "##olved": 16116, "##rable": 16670, "glint": 25263, "neighbour": 20065, "##50": 12376, "ethiopian": 15101, "hermit": 24308, "hardy": 9532, "##zing": 6774, "psychologists": 25428, "holocaust": 11513, "commencing": 25819, "##eran": 23169, "\u2207": 1595, "##adia": 25205, "##su": 6342, "nah": 20976, "rbi": 16929, "attracts": 17771, "hiss": 19074, "barron": 23594, "recommended": 6749, "occasions": 6642, "tucking": 25056, "##win": 10105, "linux": 11603, "risking": 26875, "conjunction": 9595, "menon": 25111, "1785": 17262, "russians": 12513, "##ythe": 26688, "deserved": 10849, "courthouse": 10816, "packs": 15173, ".": 1012, "felt": 2371, "fists": 10006, "grind": 23088, "monica": 9018, "jayne": 24408, "##wing": 9328, "formats": 11630, "[unused113]": 118, "anastasia": 19447, "philanthropist": 15246, "witty": 25591, "razor": 15082, "valued": 11126, "acton": 28794, "##\u5ba3": 30349, "near": 2379, "##cliffe": 18115, "raul": 16720, "##\u961d": 30496, "cooperation": 6792, "proprietary": 16350, "renegade": 28463, "progressing": 27673, "himself": 2370, "dew": 24903, "clutching": 14197, "roads": 4925, "indices": 29299, "##fly": 14151, "##\u201c": 30058, "chinatown": 22321, "stomped": 21918, "[unused101]": 106, "anzac": 29224, "concurrency": 24154, "borrowing": 23733, "coloring": 22276, "motor": 5013, "##izing": 6026, "##est": 4355, "rubber": 8903, "\u2026": 1529, "##wire": 20357, "incurred": 22667, "erica": 19295, "marlins": 27055, "horn": 7109, "helium": 22764, "islamic": 5499, "\u85e4": 1944, "##power": 11452, "severely": 8949, "animals": 4176, "glitter": 27566, "marrying": 13516, "downward": 14047, "domination": 17882, "optic": 22816, "specialists": 15744, "##uru": 14129, "[unused236]": 241, "[unused352]": 357, "##hardt": 13778, "nighttime": 26031, "##hot": 12326, "hopping": 26397, "gregory": 7296, "##aa": 11057, "##tier": 17579, "##boy": 11097, "opined": 26084, "santiago": 8728, "##rie": 7373, "##\u028a": 29698, "elsewhere": 6974, "corbin": 24003, "smiling": 5629, "nz": 20008, "##igraphy": 23132, "\u4e5f": 1750, "ryu": 19367, "alarm": 8598, "1656": 28434, "gathered": 5935, "##gues": 22967, "[unused320]": 325, "sway": 17812, "cullen": 19925, "required": 3223, "##now": 19779, "competition": 2971, "told": 2409, "bent": 6260, "maddox": 22730, "endeavor": 23855, "figured": 6618, "flanders": 13998, "##geny": 17487, "flown": 10583, "itv": 11858, "considers": 10592, "##rao": 25667, "audio": 5746, "bluegrass": 21286, "##set": 13462, "writers": 4898, "leach": 24520, "delay": 8536, "radcliffe": 22603, "ignatius": 26841, "expects": 24273, "poles": 10567, "##dha": 17516, "collided": 17745, "her": 2014, "curse": 8364, "bp": 17531, "beetles": 14538, "newtown": 26382, "comment": 7615, "protested": 11456, "##hin": 10606, "assistant": 3353, "cameroon": 13841, "brass": 8782, "##bolt": 22803, "bessie": 29298, "climates": 24734, "rocks": 5749, "deterioration": 26118, "prosecution": 11537, "steven": 7112, "russo": 17023, "##ics": 6558, "agreement": 3820, "rec": 28667, "specified": 9675, "\u5c07": 1828, "490": 22288, "turks": 12896, "##col": 25778, "ulrich": 19619, "##ines": 10586, "shotgun": 13305, "motions": 15323, "extant": 12905, "arena": 5196, "there": 2045, "##lled": 11001, "hedge": 17834, "auditor": 20964, "##rcle": 21769, "##mal": 9067, "album": 2201, "2nd": 3416, "advised": 9449, "siam": 25583, "using": 2478, "skopje": 29255, "##standing": 24911, "classifications": 26739, "attempting": 7161, "cowan": 25752, "nadu": 10703, "##\u0923": 29858, "gently": 5251, "botanist": 17098, "decides": 7288, "simultaneous": 17424, "armando": 26716, "rim": 11418, "pacing": 15732, "arrest": 6545, "juan": 5348, "otis": 18899, "##kei": 29501, "warming": 12959, "##elia": 13902, "sadler": 29012, "##41": 23632, "##jong": 21958, "##nish": 24014, "##rz": 15378, "[unused961]": 966, "[unused135]": 140, "sting": 12072, "outset": 26674, "belgian": 6995, "unofficial": 11982, "##holding": 23410, "waterfalls": 24236, "demonstrated": 7645, "ornaments": 24005, "talent": 5848, "##color": 18717, "##nik": 8238, "##des": 6155, "sasha": 14673, "spruce": 19893, "wallet": 15882, "excluded": 12421, "torre": 22047, "##\u5408": 30318, "blazed": 25590, "inclined": 13050, "shipyard": 13858, "unease": 27880, "damaged": 5591, "##dus": 17619, "sheer": 11591, "thirst": 21810, "70s": 17549, "encouraged": 6628, "articles": 4790, "furious": 9943, "403": 28203, "consort": 13440, "humiliating": 28284, "1891": 6607, "gifts": 9604, "nuremberg": 19346, "combo": 25025, "breast": 7388, "##bright": 26614, "epithet": 19626, "stepping": 9085, "portfolio": 11103, "amino": 13096, "[unused947]": 952, "temperament": 26270, "frown": 11330, "##chang": 22305, "wagner": 10304, "fleet": 4170, "superfamily": 24169, "butch": 17520, "mcgregor": 23023, "approximation": 20167, "unreasonable": 29205, "505": 28952, "disadvantaged": 27322, "##pace": 15327, "alfredo": 19423, "\u2665": 1625, "robot": 8957, "couch": 6411, "spelled": 11479, "neal": 11030, "specify": 20648, "neutron": 20393, "samoa": 15075, "##\u2212": 22543, "##rid": 14615, "marxist": 15511, "##\u09ad": 29905, "assassins": 18364, "107": 10550, "##cate": 16280, "drivers": 6853, "\u1109": 1461, "mechanical": 6228, "dusk": 18406, "organised": 7362, "sebastian": 6417, "extremely": 5186, "florian": 29517, "snuck": 24492, "determination": 9128, "##holz": 28094, "identity": 4767, "##heimer": 18826, "ninja": 14104, "dl": 21469, "##rissa": 26571, "smith": 3044, "vehicle": 4316, "bros": 10243, "rabbis": 25602, "##oper": 25918, "##tosis": 25950, "whipping": 23016, "\u6238": 1857, "fia": 19807, "argyle": 26503, "fiona": 13073, "glazed": 19724, "reviews": 4391, "chases": 29515, "agile": 29003, "\u110e": 1465, "till": 6229, "##ergy": 24395, "##ding": 4667, "##psis": 18409, "frontal": 19124, "july": 2251, "hideout": 29588, "##\u09a4": 29898, "giggles": 26466, "loop": 7077, "raged": 28374, "kenton": 25446, "presses": 14616, "cottages": 18918, "##tative": 27453, "283": 25504, "maru": 26280, "bridgeport": 27986, "umbrella": 12977, "venture": 6957, "collisions": 28820, "extinct": 8548, "##lat": 20051, "funded": 6787, "attempt": 3535, "minus": 15718, "pills": 15345, "20s": 27074, "aftermath": 10530, "##plex": 19386, "1679": 27924, "##\u2663": 30151, "provinces": 6941, "henley": 20768, "[unused791]": 796, "3rd": 3822, "mimi": 20705, "representations": 15066, "beech": 21760, "conveyed": 21527, "horrible": 9202, "\u540c": 1794, "marathon": 8589, "sins": 15516, "##\u05e5": 29808, "discuss": 6848, "mortar": 14335, "inches": 5282, "sizable": 25908, "hindwings": 15998, "##ima": 9581, "petty": 11612, "retrieve": 12850, "yamamoto": 28318, "##yre": 16363, "sanctioned": 14755, "other": 2060, "##ntly": 20630, "popularly": 16071, "sexually": 12581, "missile": 7421, "##nica": 12782, "gatherings": 21403, "##lines": 12735, "tides": 22487, "##hee": 21030, "##th": 2705, "channel": 3149, "elliptic": 29413, "##rricular": 21231, "##\u1109": 29997, "skate": 17260, "12": 2260, "moffat": 28528, "silly": 10021, "##uil": 19231, "seller": 14939, "stewart": 5954, "wed": 21981, "monuments": 10490, "##mate": 8585, "knives": 13227, "piled": 17835, "dash": 11454, "murder": 4028, "crises": 25332, "vulnerable": 8211, "necessary": 4072, "##\u0dba": 29940, "dolphins": 13600, "invisible": 8841, "trading": 6202, "##section": 29015, "guerrero": 16938, "unbroken": 29505, "movie": 3185, "\u028a": 1132, "##dalen": 26414, "journey": 4990, "dowry": 29603, "pillow": 10005, "comune": 21130, "[unused107]": 112, "twice": 3807, "##ags": 26454, "modest": 10754, "##ece": 26005, "glue": 25238, "sammy": 14450, "recoil": 27429, "7": 1021, "complimented": 27175, "1896": 6306, "##tism": 17456, "remember": 3342, "[unused197]": 202, "berlin": 4068, "requesting": 17942, "rancho": 18123, "echoing": 17142, "fourteenth": 15276, "blockade": 15823, "criticized": 6367, "evergreen": 16899, "nod": 7293, "##ouring": 27897, "spreads": 20861, "vocals": 2955, "hospitalized": 24735, "##trip": 24901, "synthetic": 12553, "offended": 15807, "jesus": 4441, "missions": 6416, "algae": 18670, "kawasaki": 27324, "proposal": 6378, "grips": 24758, "1000": 6694, "unnoticed": 22719, "##off": 7245, "context": 6123, "innocent": 7036, "cooperative": 10791, "174": 19492, "implement": 10408, "elliptical": 27213, "##ual": 8787, "229": 22777, "motorway": 13119, "bathrooms": 28942, "##ctions": 22014, "inline": 23881, "ambiguity": 27637, "[unused56]": 57, "trams": 19216, "premier": 4239, "society": 2554, "\u77f3": 1922, "clamped": 18597, "151": 16528, "sweatshirt": 28095, "\u6a4b": 1885, "impoverished": 25488, "patrols": 14703, "gesturing": 22317, "asthma": 26180, "[unused0]": 1, "choose": 5454, "117": 12567, "staggered": 14648, "plastered": 21832, "mocking": 19545, "\u00df": 1096, "canterbury": 9976, "theologians": 29013, "conceded": 15848, "declaring": 13752, "quest": 8795, "mckenna": 21749, "##ctuated": 25638, "##\u03c9": 29739, "##sie": 11741, "##aldi": 24657, "statewide": 13486, "##\u0965": 29881, "grade": 3694, "mani": 23624, "nils": 27282, "[unused403]": 408, "jacksonville": 13057, "reign": 5853, "tributary": 8914, "ours": 14635, "administrator": 8911, "##\u5289": 30303, "##llation": 20382, "##me": 4168, "prix": 5431, "bombing": 8647, "[unused124]": 129, "oppression": 20489, "sergeant": 6722, "##oca": 24755, "lyric": 13677, "annexed": 13291, "equipped": 6055, "epidemic": 16311, "faltered": 26015, "cookie": 17387, "predictions": 20932, "mitch": 11857, "trophies": 22236, "##hesis": 24124, "substrates": 23725, "yahoo": 20643, "cw": 19296, "emergency": 5057, "zombie": 11798, "fulfilling": 21570, "retain": 9279, "pilgrimage": 14741, "door": 2341, "max": 4098, "share": 3745, "zev": 27909, "mint": 12927, "accustomed": 17730, "##pac": 19498, "##guide": 28582, "buzzing": 20386, "remarkable": 9487, "##bm": 25526, "switches": 15924, "disciplines": 12736, "225": 14993, "##otted": 26174, "##zzle": 17644, "##\u0580": 29784, "##\u0251": 29677, "dialogue": 7982, "categorized": 20427, "easy": 3733, "amalgamation": 21968, "weakly": 17541, "programmers": 28547, "notch": 18624, "puddle": 25081, "file": 5371, "logistical": 28961, "[unused605]": 610, "combustion": 16513, "##yard": 14132, "patted": 11930, "greenwood": 16827, "narcotics": 27290, "[unused424]": 429, "operator": 6872, "rf": 21792, "waiting": 3403, "entertaining": 14036, "regal": 21279, "kazan": 22001, "started": 2318, "##shed": 14740, "jobs": 5841, "##uising": 28580, "bentley": 15988, "dona": 24260, "oxidation": 19577, "eve": 6574, "[unused685]": 690, "\u7684": 1916, "campbell": 6063, "bankruptcy": 10528, "horizontally": 23190, "##yde": 18124, "##\u7687": 30443, "molly": 9618, "urban": 3923, "investment": 5211, "##rted": 17724, "##\u6708": 30398, "contribute": 9002, "seeing": 3773, "##weed": 18041, "improvised": 19641, "eaton": 17642, "broken": 3714, "internally": 16058, "diversified": 24908, "soaring": 23990, "directory": 14176, "maison": 26420, "ballard": 21896, "albanians": 25267, "bowls": 15220, "advertised": 17099, "mixtape": 18713, "article": 3720, "##oria": 11069, "chair": 3242, "saddam": 24111, "husband": 3129, "pulsing": 23139, "##zzo": 12036, "\u3086": 1683, "##try": 11129, "connell": 17199, "tells": 4136, "baja": 19497, "gunners": 29000, "1700": 16601, "marshes": 19257, "##vas": 12044, "edited": 5493, "##\u5fc3": 30375, "\u09b0": 1372, "compared": 4102, "moreover": 9308, "locked": 5299, "lastly": 22267, "vibrant": 17026, "\u05be": 1240, "introduction": 4955, "macon": 20025, "cigarette": 9907, "dunedin": 22020, "forwards": 19390, "##\u4e94": 30279, "##press": 20110, "##nger": 11392, "comprise": 15821, "adjustable": 26404, "settling": 9853, "ear": 4540, "accountable": 26771, "[unused359]": 364, "##nology": 21020, "saxophonist": 19977, "skull": 7412, "giovanni": 9136, "teams": 2780, "looting": 29367, "assassinated": 16370, "1901": 5775, "cds": 14340, "##\u2500": 30142, "##fall": 13976, "1963": 3699, "lure": 17256, "modifying": 29226, "confluence": 13693, "parks": 6328, "rents": 28206, "nonlinear": 27400, "vargas": 20556, "1897": 6347, "cup": 2452, "political": 2576, "affiliates": 18460, "##ades": 18673, "##stered": 24167, "##venting": 26703, "quilt": 27565, "freshman": 10452, "winds": 7266, "prostate": 25086, "##tura": 27431, "scout": 7464, "##mann": 5804, "##sen": 5054, "##week": 28075, "eng": 25540, "yellow": 3756, "mcintyre": 24564, "assessments": 20794, "inserted": 12889, "thorpe": 20249, "informant": 28694, "info": 18558, "blaine": 20002, "guineas": 22385, "denote": 19090, "\u1da0": 1512, "##burgh": 15496, "\u062f": 1278, "luton": 17807, "stint": 12116, "practically": 8134, "##ue": 5657, "donnelly": 28317, "##get": 18150, "grafton": 28680, "##chel": 15721, "buenos": 9204, "truce": 18415, "eliot": 16292, "##mb": 14905, "introduced": 3107, "[unused30]": 31, "holder": 9111, "horrors": 22812, "sustain": 15770, "laura": 6874, "wroc\u0142aw": 25160, "##\u0628": 29816, "penitentiary": 29569, "environment": 4044, "eye": 3239, "hysteria": 29004, "has": 2038, "commuted": 26704, "bremen": 16314, "elisa": 29490, "leigh": 11797, "\u02b8": 1144, "lobby": 9568, "[unused784]": 789, "[unused384]": 389, "strapped": 18019, "##\u9999": 30505, "##jana": 18803, "cats": 8870, "iced": 28248, "##mere": 13759, "##don": 5280, "##ossa": 21842, "armenia": 10110, "##for": 29278, "listening": 5962, "forehead": 6130, "##rman": 14515, "fascination": 18987, "##\u0261": 29682, "entourage": 25342, "operation": 3169, "##pani": 26569, "clips": 15281, "pig": 10369, "alexa": 24969, "downloadable": 26720, "vertebrae": 25517, "bites": 15424, "yells": 22114, "capped": 13880, "favourite": 8837, "salford": 23001, "[unused738]": 743, "grid": 8370, "admit": 6449, "knot": 12226, "##\u10e3": 29990, "post": 2695, "benoit": 21721, "##\u03b8": 29725, "brunette": 27261, "matthias": 17885, "weekdays": 19759, "veil": 15562, "moans": 24675, "##stra\u00dfe": 24967, "ipod": 26322, "lia": 22393, "bien": 29316, "unmarked": 25779, "##uram": 27618, "earnest": 17300, "meg": 12669, "vaccines": 28896, "sophisticated": 12138, "namesake": 17283, "dunlop": 27458, "werewolves": 18306, "coptic": 27672, "##esian": 25253, "insurance": 5427, "nearby": 3518, "enthusiastically": 24935, "personal": 3167, "senator": 5205, "##5": 2629, "demonstrations": 13616, "doctoral": 11316, "painful": 9145, "##rl": 12190, "##form": 14192, "rose": 3123, "jase": 18626, "gaa": 19930, "analyze": 17908, "##gil": 20142, "donnie": 28486, "recognized": 3858, "[unused228]": 233, "locating": 26339, "commercial": 3293, "[unused461]": 466, "gets": 4152, "praised": 5868, "babe": 11561, "##dou": 26797, "chatham": 16727, "aspects": 5919, "##rini": 22612, "bangladesh": 7269, "[unused507]": 512, "ky": 18712, "\u30b1": 1703, "\u0636": 1285, "stores": 5324, "sacrifice": 8688, "\u8c9d": 1952, "##dance": 25514, "formulation": 20219, "\u2014": 1517, "[unused884]": 889, "##\u03c8": 29738, "lawsuit": 9870, "outdoors": 19350, "##imi": 27605, "[unused455]": 460, "sousa": 28535, "##rno": 19139, "\u3068": 1666, "##ffer": 12494, "please": 3531, "earn": 7796, "acquire": 9878, "\u0e21": 1415, "palestine": 8976, "##kou": 24861, "vibration": 17880, "firstly": 15847, "unpopular": 19657, "patti": 22732, "lived": 2973, "##atory": 14049, "underway": 14128, "compensation": 9430, "inferno": 21848, "visionary": 28036, "##\u53f8": 30317, "##sz": 17112, "hundred": 3634, "triggering": 29170, "##roll": 28402, "##rized": 18425, "\u00b5": 1085, "171": 18225, "existed": 5839, "establishment": 5069, "##\u0935": 29871, "##up": 6279, "changed": 2904, "##ard": 4232, "vin": 19354, "rap": 9680, "johan": 13093, "zhejiang": 26805, "christophe": 23978, "sawmill": 24744, "\u5206": 1775, "dedicated": 4056, "##p": 2361, "optics": 21026, "detecting": 25952, "\u1d50": 1502, "zagreb": 12974, "nightmare": 10103, "nathan": 7150, "thinkers": 24762, "m": 1049, "managing": 6605, "1732": 27582, "spartak": 28560, "unnatural": 21242, "playback": 18245, "fulfill": 13883, "emerges": 19391, "##\\": 29635, "rey": 12569, "##torium": 24390, "knit": 22404, "artillery": 4893, "\u03b8": 1162, "departments": 7640, "rome": 4199, "1667": 27643, "expose": 14451, "trains": 4499, "##ula": 7068, "##mbling": 29256, "feared": 8615, "attic": 14832, "municipal": 4546, "poses": 22382, "junior": 3502, "stopped": 3030, "bergman": 24544, "economists": 22171, "one": 2028, "##nsky": 25655, "kingdom": 2983, "##\u0986": 29884, "poe": 18922, "##\u11ab": 30021, "##stream": 21422, "confess": 18766, "332": 29327, "shi": 11895, "\u02b7": 1143, "##less": 3238, "contestant": 10832, "security": 3036, "1950": 3925, "##bella": 21700, "##q": 4160, "\u04cf": 1218, "##ive": 3512, "disturbance": 16915, "sucks": 19237, "kruger": 27823, "magnolia": 24659, "utility": 9710, "cringed": 23952, "dresden": 12983, "##onia": 12488, "pools": 12679, "##\u056b": 29772, "bethel": 19375, "estadio": 14143, "necklace": 13016, "purposes": 5682, "quarterfinals": 9237, "cf": 12935, "hears": 14994, "monterey": 19860, "\u2205": 1593, "sichuan": 20980, "##tures": 22662, "zane": 6944, "##\u00b4": 29658, "tau": 19982, "worse": 4788, "onion": 20949, "kn": 14161, "jill": 10454, "##ales": 23266, "##hart": 10686, "armoured": 11104, "set": 2275, "proceeds": 10951, "distributors": 22495, "alternative": 4522, "##idad": 27893, "plush": 27729, "##rf": 12881, "##thi": 15222, "legal": 3423, "[unused226]": 231, "staging": 15308, "u": 1057, "airmen": 29437, "1623": 29056, "songwriter": 6009, "humour": 17211, "##gent": 11461, "\u0bb3": 1393, "1931": 4739, "tug": 12888, "customized": 28749, "sha": 21146, "outpost": 21080, "##aire": 14737, "writing": 3015, "category": 4696, "##tern": 16451, "hips": 6700, "\u221a": 1600, "##olt": 27914, "blackened": 25788, "ashby": 28729, "replaces": 20736, "stairway": 21952, "lange": 21395, "##fy": 12031, "pierce": 9267, "sensible": 21082, "##rina": 11796, "habit": 10427, "ottomans": 17774, "##agi": 22974, "\u09bf": 1379, "wigan": 15598, "exiting": 22371, "noticed": 4384, "##\u0905": 29847, "corpse": 11547, "supporters": 6793, "ii": 2462, "sergey": 22703, "##ones": 21821, "[unused43]": 44, "anatomical": 28141, "apparel": 26278, "\u0456": 1213, "vowed": 18152, "treating": 12318, "##ules": 16308, "skills": 4813, "mil": 23689, "wilkins": 22745, "suburban": 9282, "grinding": 16153, "marian": 14042, "straps": 19702, "defences": 16828, "##raphy": 26228, "fabric": 8313, "believing": 8929, "##yeh": 25673, "desperate": 7143, "minneapolis": 11334, "honest": 7481, "amin": 24432, "figures": 4481, "muir": 23110, "##zia": 12871, "1868": 7582, "hilarious": 26316, "dare": 8108, "web": 4773, "##rn": 6826, "hating": 22650, "cyclic": 23750, "singer": 3220, "remark": 17674, "situated": 4350, "graffiti": 17990, "sous": 27411, "north": 2167, "##otho": 29288, "99": 5585, "multinational": 20584, "churchyard": 19812, "gladstone": 21765, "##vao": 24682, "proceeded": 8979, "giorgio": 17697, "rios": 25836, "mat": 13523, "##tale": 22059, "ashford": 26545, "honour": 6225, "hall": 2534, "castillo": 19371, "combat": 4337, "boyd": 12164, "1622": 28133, "rust": 18399, "pursuing": 11828, "##cats": 19588, "bolivian": 26075, "patterned": 25336, "val": 11748, "accessories": 16611, "politely": 16954, "supporter": 10129, "maurice": 7994, "vamp": 20279, "sanjay": 29590, "outsiders": 22361, "##ston": 7106, "variables": 10857, "persistent": 14516, "casual": 10017, "malicious": 24391, "1877": 7557, "movement": 2929, "alabama": 6041, "910": 27743, "##lins": 24412, "boon": 23264, "##\u738b": 30435, "adjective": 24931, "##rates": 20370, "sun": 3103, "withdraw": 10632, "wardrobe": 17828, "32nd": 20628, "hope": 3246, "masonic": 21152, "hana": 26048, "character": 2839, "talk": 2831, "polymer": 17782, "remarried": 19316, "trevor": 8672, "corresponded": 27601, "operators": 9224, "##was": 17311, "motorola": 29583, "disorders": 10840, "##\u0570": 29775, "bin": 8026, "altered": 8776, "separation": 8745, "situation": 3663, "further": 2582, "1932": 4673, "mina": 19808, "sino": 19432, "ty": 5939, "mcconnell": 28514, "distillery": 24870, "sh": 14021, "payments": 10504, "circa": 12800, "literal": 18204, "sediment": 19671, "##500": 29345, "algebraic": 17390, "[unused360]": 365, "talents": 11725, "##rito": 28414, "heavy": 3082, "mine": 3067, "library": 3075, "##physics": 15638, "naughty": 20355, "[unused361]": 366, "filthy": 18294, "stock": 4518, "flame": 8457, "##ai": 4886, "maltese": 18563, "blamed": 11248, "##ipes": 28108, "##ssed": 29417, "garbage": 13044, "harvey": 7702, "grandma": 13055, "##hm": 14227, "roger": 5074, "coffin": 13123, "asher": 17243, "risked": 22374, "bunk": 25277, "##24": 18827, "1672": 27253, "jug": 26536, "io": 22834, "presentation": 8312, "repression": 22422, "transformations": 21865, "transylvania": 20816, "hong": 4291, "##reate": 29313, "buys": 23311, "murdering": 21054, "arrondissement": 20522, "##wick": 7184, "denis": 11064, "##arty": 23871, "derelict": 28839, "##isi": 17417, "##fighter": 20027, "philippine": 7802, "aus": 17151, "racehorse": 25068, "##\u662d": 30394, "[unused470]": 475, "suggested": 4081, "252": 22898, "compact": 9233, "mineral": 9754, "\u0437": 1187, "suffix": 16809, "##46": 21472, "vox": 29450, "exhibition": 4538, "##enting": 26951, "louisa": 15731, "\u0ba8": 1386, "44": 4008, "linking": 11383, "saratoga": 23136, "trophy": 5384, "surrounding": 4193, "descended": 9287, "##eem": 21564, "moving": 3048, "head": 2132, "##11": 14526, "nonsense": 14652, "declared": 4161, "holes": 8198, "crusade": 16282, "suppression": 16341, "##lusion": 24117, "infamous": 14429, "cellar": 15423, "carts": 25568, "frowns": 29303, "squeezed": 7757, "##iciencies": 28227, "##ogen": 23924, "popularized": 20339, "palatinate": 18990, "strikers": 26049, "hounds": 27772, "sri": 5185, "extremes": 28800, "retention": 20125, "software": 4007, "##cor": 27108, "remarkably": 17431, "electromagnetic": 17225, "[unused823]": 828, "tyrone": 18770, "38th": 22051, "increased": 3445, "executives": 12706, "gravitational": 19790, "atkinson": 18646, "[unused459]": 464, "contribution": 6691, "[unused675]": 680, "subsidiary": 7506, "wheeler": 12819, "posted": 6866, "\u02bb": 1145, "bradford": 9999, "##\u7592": 30439, "##nick": 13542, "##86": 20842, "relief": 4335, "##\u30fb": 30264, "hulk": 16009, "##\u68ee": 30408, "[unused983]": 988, "##tized": 23355, "sinister": 16491, "moon": 4231, "apologized": 17806, "##\u00df": 19310, "meters": 5563, "dewey": 20309, "constructions": 21913, "##ddling": 21814, "sensor": 13617, "breeds": 15910, "##nna": 9516, "constable": 12294, "regulate": 15176, "riley": 7546, "defective": 28829, "devon": 7614, "steals": 15539, "##\u4ecb": 30285, "##42": 20958, "uneasy": 15491, "##vating": 26477, "##\u1d52": 30039, "##fles": 28331, "##nai": 26416, "##rk": 8024, "quarterback": 9074, "unleashed": 22416, "mercedes": 10793, "communion": 15661, "##loid": 27710, "##uf": 16093, "sour": 14768, "unincorporated": 7754, "waist": 5808, "styled": 13650, "ida": 16096, "spontaneously": 27491, "regulatory": 10738, "boardwalk": 29496, "strongest": 10473, "##rrier": 27051, "suspense": 23873, "break": 3338, "##lake": 14530, "congressional": 7740, "colliery": 19462, "##tia": 10711, "##\u043b": 29436, "hawaii": 7359, "netherlands": 4549, "sore": 14699, "performance": 2836, "##sms": 19230, "[unused306]": 311, "supplier": 17024, "deploy": 21296, "closest": 7541, "austin": 5899, "distrust": 29245, "witch": 6965, "##pad": 15455, "mob": 11240, "[unused435]": 440, "than": 2084, "southland": 29121, "behaviour": 9164, "##1": 2487, "\u0940": 1342, "jalan": 28410, "lausanne": 22256, "closet": 9346, "reuben": 17294, "##pate": 17585, "##sal": 12002, "frontier": 8880, "scary": 12459, "rice": 5785, "astonishing": 26137, "nebraska": 8506, "##\u2075": 30074, "compositions": 9265, "malley": 25271, "deputy": 4112, "##\u092a": 29864, "judaism": 13725, "laptop": 12191, "clown": 15912, "neurons": 15698, "understanding": 4824, "##taff": 22542, "slash": 18296, "##polis": 17699, "suffolk": 12291, "friction": 15012, "deemed": 8357, "spawning": 27957, "freud": 19338, "capitalist": 19640, "junction": 5098, "without": 2302, "moonlight": 11986, "kb": 21677, "henrik": 18745, "decreasing": 16922, "\u5ddd": 1835, "sank": 7569, "##wig": 16279, "bugs": 12883, "eta": 27859, "##imo": 16339, "charges": 5571, "##oration": 21223, "deep": 2784, "taking": 2635, "\u30ad": 1701, "acquisitions": 19530, "##ppel": 27877, "ecumenical": 23540, "deportivo": 23696, "##note": 22074, "songs": 2774, "optimization": 20600, "firth": 25138, "enthusiastic": 14727, "ti": 14841, "##\u0926": 29861, "selector": 27000, "boroughs": 21413, "injection": 13341, "substituted": 17316, "\u0936": 1336, "##\u516b": 30297, "numerical": 15973, "emotions": 6699, "products": 3688, "collapse": 7859, "[unused157]": 162, "especially": 2926, "skipping": 25978, "##men": 3549, "yunnan": 21607, "plunged": 16687, "zoe": 11199, "dumb": 12873, "indifference": 25920, "dynamite": 21719, "jeep": 14007, "empirical": 17537, "ion": 10163, "thug": 26599, "exploitation": 14427, "commitments": 17786, "lawson": 14577, "##tile": 15286, "[unused924]": 929, "##arns": 23549, "ku": 13970, "seismic": 22630, "publishers": 8544, "profit": 5618, "##\u2019": 30056, "microwave": 18302, "##hl": 7317, "failures": 15428, "&": 1004, "vanuatu": 27625, "blood": 2668, "sensed": 10596, "##charged": 22620, "##cott": 13124, "##ght": 13900, "skaters": 24789, "connor": 6720, "medici": 22605, "\u2286": 1611, "manned": 15371, "##eki": 26576, "saudi": 8174, "##gata": 26589, "adamant": 29502, "bobo": 27418, "##\u0bb2": 29928, "1624": 28531, "##redo": 23417, "texas": 3146, "strike": 4894, "1816": 12357, "noisy": 20810, "caress": 21753, "motto": 12652, "constance": 15713, "jewelry": 11912, "alloy": 17564, "##\u77f3": 30448, "elijah": 14063, "prefix": 17576, "sincerity": 23997, "[unused494]": 499, "[unused932]": 937, "1086": 28196, "\u5e74": 1840, "biscuits": 27529, "rough": 5931, "cipher": 27715, "analogous": 19639, "railing": 15747, "akron": 22735, "volvo": 21074, "resembles": 12950, "hoffmann": 24437, "surveyor": 17169, "tingling": 23690, "ambiguous": 20080, "ling": 17002, "hushed": 24033, "objected": 15959, "hold": 2907, "pol": 14955, "esther": 14631, "human": 2529, "\u6e05": 1903, "[unused481]": 486, "getting": 2893, "antioch": 19078, "##\u0447": 29752, "righteous": 19556, "testify": 19919, "grease": 21956, "whether": 3251, "##ski": 5488, "dixie": 18910, "diego": 5277, "dragon": 5202, "##ogo": 22844, "##cke": 19869, "monograph": 24039, "gu": 19739, "stadium": 3346, "##kia": 21128, "fluorescent": 22184, "screaming": 7491, "readers": 8141, "overheard": 20443, "signed": 2772, "\u571f": 1801, "ported": 27650, "260": 13539, "perth": 9300, "protector": 16167, "##\u0f62": 29970, "##minating": 27932, "magnet": 16853, "yorkshire": 7018, "##bilis": 27965, "protruding": 23868, "\u798f": 1926, "recalling": 21195, "rhymes": 24468, "coal": 5317, "moons": 23377, "excavated": 15199, "gold": 2751, "antagonist": 17379, "##tial": 20925, "memory": 3638, "##ih": 19190, "\u2090": 1560, "differentiated": 24374, "fighter": 4959, "##ulata": 18060, "felipe": 17095, "##gens": 21230, "##wil": 29602, "[unused708]": 713, "status": 3570, "dutch": 3803, "##mps": 25370, "vr": 27830, "##tose": 22282, "progresses": 22901, "\u306b": 1668, "\u30b7": 1706, "timeless": 27768, "selma": 28112, "ncaa": 5803, "[unused277]": 282, "geneva": 9810, "##dr": 13626, "##ward": 7652, "fade": 12985, "1845": 9512, "united": 2142, "justices": 19867, "homecoming": 20772, "[unused809]": 814, "providers": 11670, "opinion": 5448, "apache": 15895, "mir": 14719, "tunis": 25317, "[unused567]": 572, "cycling": 9670, "stripping": 23987, "##pods": 22925, "suddenly": 3402, "prefer": 9544, "unfortunately": 6854, "hopefully": 11504, "eels": 29317, "ali": 4862, "roi": 25223, "meek": 28997, "wanna": 10587, "sufficient": 7182, "lied": 9828, "##ple": 10814, "montpellier": 28153, "cuts": 7659, "\u10e2": 1453, "prisoner": 7267, "yelled": 7581, "environmental": 4483, "lever": 15929, "barr": 19820, "\u10dd": 1450, "##wat": 24281, "##gating": 16961, "televised": 13762, "showcases": 27397, "grasses": 21620, "wince": 29585, "##rization": 26910, "wiley": 18825, "##sworth": 12255, "presenters": 25588, "through": 2083, "hurled": 24025, "top": 2327, "commit": 10797, "##\u05e2": 29805, "[unused100]": 105, "tong": 15740, "subtly": 28797, "thirties": 26313, "darren": 12270, "\u2083": 1550, "consideration": 9584, "backs": 10457, "nonetheless": 9690, "inflammation": 21733, "1789": 13739, "summers": 10945, "catholicism": 16138, "wrenched": 26971, "##ulum": 25100, "correct": 6149, "\u53f2": 1790, "thou": 15223, "##ffed": 15388, "##logists": 18738, "beside": 3875, "turned": 2357, "entries": 10445, "duplicate": 24473, "keys": 6309, "##\u266d": 24102, "##\u0f66": 29972, "##\u02b7": 29709, "museo": 19713, "fireplace": 13788, "aiding": 24791, "##cape": 19464, "admiralty": 14179, "promised": 5763, "sends": 10255, "garage": 7381, "##sier": 20236, "mic": 23025, "##scan": 29378, "drilled": 24311, "referenced": 14964, "cinder": 29399, "##fies": 14213, "diversion": 20150, "agencies": 6736, "huh": 9616, "mccormick": 23213, "##ivar": 28739, "beginnings": 16508, "mud": 8494, "##nko": 16107, "moroccan": 17494, "[unused336]": 341, "scratching": 20291, "splashed": 22055, "vain": 15784, "sunset": 10434, "##rum": 6824, "cerro": 25498, "comb": 22863, "palermo": 18705, "landon": 20642, "fashioned": 13405, "tri": 13012, "1400": 20652, "preferred": 6871, "##\u1d47": 30033, "tugged": 10621, "obesity": 24552, "##era": 6906, "tonic": 28157, "##tres": 19168, "priesthood": 17911, "screwed": 14180, "leone": 13363, "1735": 26063, "\u1d43": 1496, "negro": 12593, "chased": 13303, "korea": 4420, "dies": 8289, "baking": 21522, "rink": 18416, "blast": 8479, "luckily": 15798, "mahmoud": 27278, "begun": 5625, "##vel": 15985, "##\u4e45": 30274, "\u03be": 1168, "gladys": 22386, "[unused696]": 701, "threats": 8767, "[unused483]": 488, "clarkson": 18648, "weave": 25308, "##\u2122": 30108, "deck": 5877, "skepticism": 27936, "calabria": 29430, "cleanup": 27686, "joan": 7437, "youth": 3360, "poll": 8554, "greene": 11006, "leighton": 26873, "justine": 26377, "kildare": 24275, "josephine": 16117, "##kill": 15872, "visible": 5710, "##cens": 19023, "paper": 3259, "lifted": 4196, "mx": 25630, "ballots": 17069, "wildlife": 6870, "yves": 19687, "##llary": 24435, "alderman": 18977, "geelong": 18664, "[unused445]": 450, "napoleon": 8891, "invariant": 23915, "tomas": 12675, "##ool": 13669, "2": 1016, "\u0f56": 1431, "[unused958]": 963, "glee": 18874, "touched": 5028, "##coll": 26895, "processed": 13995, "enthusiasts": 20305, "vivid": 14954, "primetime": 18474, "progressive": 6555, "powder": 9898, "residency": 14079, "[unused948]": 953, "deborah": 15555, "deals": 9144, "sawyer": 13975, "fought": 4061, "engaging": 11973, "macleod": 23075, "\u0938": 1338, "pretended": 14688, "specializes": 16997, "gage": 10012, "cool": 4658, "uno": 27776, "grammar": 8035, "odor": 19255, "volunteers": 7314, "hollis": 27477, "##inator": 23207, "allan": 8926, "websites": 11744, "nakamura": 23981, "inhabit": 21490, "ke": 17710, "mediated": 19872, "##\u9234": 30491, "penn": 9502, "##eptive": 22048, "dakota": 7734, "bravery": 16534, "usual": 5156, "developing": 4975, "actions": 4506, "\u1d65": 1510, "##vana": 27313, "##of": 11253, "maestro": 25270, "napoleonic": 18813, "stimulus": 19220, "katz": 20729, "74": 6356, "whole": 2878, "plans": 3488, "\u026a": 1119, "egyptian": 6811, "tactics": 9887, "bryson": 26845, "embarked": 11299, "suriname": 25050, "ravine": 23188, "##cchi": 25955, "rigorous": 20001, "gracefully": 28266, "30th": 13293, "speculation": 12143, "lunch": 6265, "adopt": 11092, "hammering": 27883, "doubles": 7695, "##ille": 10484, "##18": 15136, "recognise": 17614, "roe": 20944, "1737": 26738, "\u0dba": 1404, "pearls": 21944, "lizard": 15450, "emilio": 18644, "dynasties": 23014, "penetrated": 21653, "bray": 19743, "columbia": 3996, "blond": 8855, "shah": 7890, "feud": 13552, "war": 2162, "therapeutic": 17261, "##ogist": 22522, "expectations": 10908, "month": 3204, "superstar": 18795, "complied": 26946, "bought": 4149, "jensen": 14857, "##imated": 20592, "habsburg": 17486, "parents": 3008, "##tr": 16344, "45": 3429, "displaced": 12936, "landfill": 28382, "##nity": 22758, "synthesizers": 22211, "##85": 27531, "##oda": 13390, "##ier": 3771, "fisherman": 19949, "[unused290]": 295, "ball": 3608, "configuration": 9563, "payton": 28666, "immigrant": 11560, "alec": 9752, "laguna": 18169, "creatures": 7329, "mexican": 4916, "way": 2126, "scarred": 21985, "bug": 11829, "neill": 11511, "##\u3064": 30190, "##py": 7685, "ping": 17852, "##uda": 14066, "1955": 3982, "710": 27671, "oils": 20631, "diffuse": 28105, "freeing": 22198, "[unused770]": 775, "##ency": 11916, "contributing": 8020, "codex": 15763, "cadillac": 20425, "patents": 13979, "casinos": 27300, "##pa": 4502, "\u1d4f": 1501, "mab": 26661, "resign": 12897, "classmates": 19846, "expressway": 11720, "wal": 24547, "bari": 22466, "counted": 8897, "##\u0e32": 29958, "[unused895]": 900, "ousted": 28368, "mouthed": 20521, "preserve": 7969, "demetrius": 28367, "paradise": 9097, "owns": 8617, "practices": 6078, "studied": 3273, "##och": 11663, "praise": 8489, "##quitable": 28298, "rebellious": 22614, "##ice": 6610, "##ori": 10050, "blankly": 26344, "di": 4487, "##cliff": 27580, "rulers": 11117, "##cast": 10526, "wrote": 2626, "##\u30d8": 30247, "ascot": 29036, "##mos": 15530, "3000": 11910, "##\u0280": 29693, "meditation": 13804, "\u702c": 1905, "##gger": 13327, "\u0431": 1181, "##\u0431": 29740, "trail": 4446, "vera": 12297, "backgrounds": 15406, "##ocating": 27483, "tamara": 21772, "\u9999": 1979, "previous": 3025, "tim": 5199, "firm": 3813, "donaldson": 23164, "ozone": 26443, "punishments": 29115, "##age": 4270, "continuous": 7142, "bobbie": 27731, "scales": 9539, "##tray": 28473, "##ronia": 28140, "40th": 16541, "126": 14010, "##64": 21084, "dear": 6203, "implemented": 7528, "colbert": 23928, "stationary": 17337, "close": 2485, "##ss": 4757, "handbook": 14812, "pudding": 29593, "##rya": 20444, "commemorative": 17524, "##zell": 24085, "##khov": 25495, "mouth": 2677, "##\u6226": 30382, "interference": 11099, "##plin": 28296, "lu": 11320, "##art": 8445, "cafe": 7668, "##uance": 26620, "accomplishments": 17571, "stilled": 22791, "turret": 14493, "##\u1d50": 30038, "shouldered": 29383, "threatened": 5561, "geological": 9843, "aero": 18440, "laid": 4201, "321": 24030, "##oom": 17650, "rower": 21984, "compute": 24134, "##gl": 23296, "##\u043f": 29746, "##mmel": 29033, "prolonged": 15330, "compromised": 20419, "faso": 22773, "##\u7701": 30446, "independence": 4336, "supposedly": 10743, "outbreak": 8293, "stalin": 13125, "brandt": 19407, "\u1d4d": 1500, "clinton": 7207, "##eaux": 25639, "fresno": 20840, "mildred": 25452, "tn": 28286, "childbirth": 27162, "ladies": 6456, "\u548c": 1796, "amenities": 19870, "1550": 26245, "211": 19235, "##ssing": 18965, "vista": 13005, "##tp": 25856, "arrives": 8480, "##\u110f": 30002, "harden": 28751, "tips": 10247, "wireless": 9949, "begged": 12999, "hardest": 18263, "##ici": 28775, "accord": 15802, "taxpayers": 26457, "vault": 11632, "supernatural": 11189, "##\u00aa": 29653, "destruction": 6215, "##hered": 27190, "legislature": 6372, "restrictions": 9259, "##cho": 9905, "\u00b1": 1081, "vet": 29525, "against": 2114, "realizing": 9301, "bella": 12101, "females": 3801, "evenly": 18030, "indefinite": 25617, "militia": 8396, "sima": 26769, "##ution": 13700, "##ructured": 26134, "lund": 21860, "44th": 26409, "lacrosse": 13488, "##oven": 25592, "timmy": 27217, "sunrise": 13932, "##bba": 22414, "textures": 29343, "aztec": 25245, "aromatic": 25496, "fallout": 23902, "karin": 24537, "cheered": 25471, "passenger": 4628, "separates": 18600, "moshe": 27123, "darius": 14861, "\u2217": 1598, "marijuana": 16204, "##tered": 14050, "albums": 4042, "drake": 7867, "[unused888]": 893, "losses": 6409, "##ttal": 28200, "##\u6b63": 30414, "powered": 6113, "beaumont": 16210, "firms": 9786, "##vic": 7903, "##tine": 10196, "##hman": 13890, "##dio": 20617, "emails": 22028, "blindness": 26290, "anxiety": 10089, "sourced": 23184, "deficit": 15074, "##gible": 18507, "geared": 23636, "lasts": 16180, "##erin": 23282, "admitting": 17927, "torah": 16297, "dropping": 7510, "circle": 4418, "manson": 21440, "romero": 18290, "[unused850]": 855, "wide": 2898, "darkest": 23036, "freaked": 22783, "##tar": 7559, "##unds": 26698, "meyer": 11527, "threshold": 11207, "ragged": 14202, "nicola": 17388, "##bbies": 27982, "liability": 14000, "##izations": 22318, "shoulder": 3244, "ramsay": 19460, "consent": 9619, "niece": 12286, "/": 1013, "injury": 4544, "monmouth": 20433, "##ety": 27405, "forearms": 27323, "prussian": 10734, "forged": 16158, "volta": 26089, "paula": 13723, "synod": 15374, "pip": 28315, "mountainous": 14897, "circuit": 4984, "inferior": 14092, "180": 8380, "##orno": 26295, "##lav": 14973, "distress": 12893, "warriors": 6424, "cardinal": 7185, "lashes": 16008, "regimes": 25228, "##\u0985": 29883, "##bly": 6321, "dwell": 23120, "aux": 19554, "profitable": 15282, "##lou": 23743, "bucharest": 14261, "given": 2445, "98": 5818, "defenders": 12534, "persuaded": 11766, "292": 25797, "##borne": 19288, "untouched": 22154, "profile": 6337, "uniforms": 11408, "triumph": 10911, "chen": 8802, "explaining": 9990, "bodies": 4230, "##ating": 5844, "1839": 10011, "m\u00b2": 7030, "nephew": 7833, "sovereign": 11074, "172": 18253, "fiancee": 19455, "##iga": 13340, "patrons": 13497, "portrait": 6533, "senate": 4001, "##ractive": 26884, "1st": 3083, "titanium": 23431, "1783": 15331, "stranger": 7985, "narayan": 24331, "communists": 13009, "bruise": 24851, "cannabis": 17985, "##fires": 26332, "dt": 26718, "luminous": 25567, "##rden": 18246, "camel": 19130, "terrifying": 17082, "stale": 26729, "##\u0142": 18818, "killings": 16431, "hierarchical": 25835, "aziz": 21196, "slovenian": 16583, "juliet": 13707, "sequencing": 24558, "utah": 6646, "cocked": 13179, "movies": 5691, "daryl": 22514, "resin": 24604, "biennial": 20313, "doubled": 11515, "rosa": 9508, "nations": 3741, "rook": 28620, "database": 7809, "rafe": 15819, "104": 9645, "michael": 2745, "flung": 14016, "comfort": 7216, "agents": 6074, "border": 3675, "##tagram": 23091, "envy": 21103, "unlocked": 14058, "##ves": 6961, "##hawk": 17998, "crowley": 20748, "##\u30fc": 30265, "thoughts": 4301, "spoon": 15642, "mess": 6752, "happier": 19366, "##\u0582": 29785, "commemorating": 20646, "\u0570": 1228, "percent": 3867, "\u99ac": 1980, "retired": 3394, "molten": 23548, "dual": 7037, "##anies": 28064, "fortune": 7280, "tenderly": 26596, "flashback": 21907, "\u53e4": 1789, "arch": 7905, "wrath": 14532, "##lent": 16136, "slate": 12796, "scheduled": 5115, "saving": 7494, "thousands": 5190, "lingered": 17645, "julia": 6423, "sanitation": 18723, "genius": 11067, "dispute": 7593, "micro": 12702, "sings": 10955, "##et": 3388, "assets": 7045, "superstructure": 28391, "credibility": 21553, "pornographic": 26932, "propellers": 23405, "34th": 20460, "parcel": 20463, "262": 21950, "obligation": 14987, "1886": 6929, "##lization": 22731, "automation": 19309, "succeeds": 21645, "blows": 13783, "signals": 7755, "proponent": 22488, "iteration": 27758, "martyrs": 18945, "##\u2096": 30094, "protectorate": 20394, "angered": 18748, "1658": 28944, "##lini": 22153, "##\u091f": 29856, "shitty": 28543, "residual": 21961, "[unused548]": 553, "casino": 9270, "1850s": 16488, "harry": 4302, "coefficient": 19064, "##rity": 15780, "absorption": 16326, "ss": 7020, "contemplated": 23133, "clerical": 23106, "##folk": 29284, "compass": 16681, "[unused786]": 791, "return": 2709, "##\u099c": 29894, "nails": 10063, "serious": 3809, "pulsed": 24107, "moaned": 12557, "##jet": 15759, "lordship": 20698, "##\u9593": 30495, "consul": 11801, "##\u0634": 29825, "bahia": 22474, "blacksmith": 20987, "##bh": 23706, "bloomington": 26372, "strands": 14119, "happened": 3047, "##\u1167": 30010, "##tite": 23096, "thoughtful": 16465, "mapping": 12375, "busch": 15840, "kobe": 24113, "responses": 10960, "##\u3044": 30173, "regular": 3180, "vanguard": 18332, "components": 6177, "##gpur": 25758, "traced": 9551, "winged": 14462, "ralph": 6798, "buyer": 17634, "##hop": 18471, "counterparts": 14562, "exemplified": 28593, "##logy": 6483, "malaria": 19132, "bam": 25307, "papal": 12156, "wen": 19181, "##rative": 18514, "smiled": 3281, "groundbreaking": 23222, "\u00ac": 1078, "chip": 9090, "dragged": 7944, "patty": 17798, "marketplace": 18086, "cyber": 16941, "##pling": 14353, "desmond": 16192, "cement": 11297, "cairns": 21731, "emeritus": 12372, "##birds": 12887, "transmitting": 23820, "##head": 4974, "beasts": 15109, "##dong": 17679, "braid": 24148, "\u967d": 1973, "##bria": 21556, "\u6625": 1867, "football": 2374, "##lase": 25002, "goodman": 14514, "nfl": 5088, "manifold": 19726, "originally": 2761, "availability": 11343, "katy": 17870, "##cana": 28621, "credits": 6495, "##onate": 21149, "alvarez": 16309, "stalks": 29594, "[unused824]": 829, "received": 2363, "\u1d56": 1504, "##\u0e21": 29951, "snout": 17291, "ra": 10958, "##\u044e": 29757, "generalized": 18960, "structural": 8332, "1742": 25704, "bows": 21207, "##nen": 10224, "[unused49]": 50, "##zed": 5422, "holt": 12621, "administered": 8564, "harmless": 19741, "inherent": 16112, "tunes": 13281, "lax": 27327, "[unused240]": 245, "deployment": 10813, "bland": 20857, "330": 14210, "[unused938]": 943, "downhill": 19448, "det": 20010, "epilogue": 24297, "brittle": 24650, "eventual": 9523, "ecosystem": 16927, "move": 2693, "bengali": 11267, "indoors": 24274, "collaborator": 18843, "mail": 5653, "jacqueline": 17551, "carolyn": 15611, "\u2092": 1562, "absolute": 7619, "ascent": 16354, "detainees": 26485, "##\u20ac": 30102, "##wg": 27767, "garments": 21902, "forever": 5091, "barbie": 22635, "essays": 8927, "any": 2151, "themes": 6991, "cleveland": 6044, "environments": 10058, "##tal": 9080, "##\u25aa": 30145, "plenty": 7564, "integral": 9897, "\u535a": 1786, "[unused466]": 471, "##zumi": 28114, "st": 2358, "coliseum": 18338, "hyper": 23760, "kicker": 22652, "predecessors": 16372, "homicide": 18268, "dissemination": 28170, "monkey": 10608, "adequate": 11706, "linden": 22066, "toll": 9565, "hades": 23003, "flyers": 16217, "notification": 26828, "problem": 3291, "unemployment": 12163, "frowned": 7335, "##ometric": 28993, "##tructing": 26310, "talbot": 14838, "fantasies": 21233, "wallis": 24029, "hornet": 26795, "##lved": 26832, "precipitation": 13511, "times": 2335, "wren": 16255, "##mium": 27759, "buddhist": 7992, "##zione": 20574, "current": 2783, "alejandro": 16810, "ibn": 7839, "canine": 28735, "works": 2573, "matthew": 5487, "##ing": 2075, "##own": 12384, "installment": 18932, "excitement": 8277, "##hole": 11484, "mt": 11047, "trio": 7146, "fastest": 7915, "266": 25162, "##gy": 6292, "countered": 17970, "bea": 26892, "##akh": 27573, "criminals": 12290, "charred": 29030, "compounds": 10099, "recounts": 23412, "ions": 15956, "##gin": 11528, "ron": 6902, "##wind": 11101, "[unused415]": 420, "musa": 23154, "urged": 9720, "criticised": 10648, "irrational": 23179, "illusions": 24883, "patton": 18090, "##itzer": 19253, "ji": 10147, "specially": 11974, "1794": 13199, "##piece": 11198, "##\u201a": 30057, "[unused224]": 229, "##w": 2860, "1844": 9730, "shannon": 10881, "##ail": 12502, "repairing": 26296, "policemen": 19809, "eighty": 12021, "breadth": 25291, "cosmic": 14448, "##tford": 26341, "##caster": 25490, "truss": 24224, "##ente": 15781, "##cker": 9102, "curiously": 16484, "[unused660]": 665, "##ouse": 15441, "audible": 19525, "powerless": 25192, "##we": 8545, "shock": 5213, "##\uff09": 30514, "##\u306b": 30194, "\u1107": 1460, "##gren": 13565, "chihuahua": 28480, "##all": 8095, "health": 2740, "2016": 2355, "##\u5c07": 30354, "##mbre": 19908, "##tam": 15464, "kala": 26209, "dickens": 19675, "sharply": 9249, "attempts": 4740, "operating": 4082, "##80": 17914, "179": 20311, "##relli": 22948, "##oy": 6977, "bounds": 19202, "##elo": 18349, "[unused499]": 504, "##unas": 23904, "modernist": 19770, "monasteries": 15947, "##genase": 28835, "snarl": 24845, "191": 19871, "despair": 13905, "231": 20304, "##\u05d2": 29790, "trigger": 9495, "\u00a4": 1070, "queue": 24240, "considerable": 6196, "##phus": 25255, "coverage": 6325, "lovely": 8403, "allah": 16455, "invading": 17657, "thy": 15177, "calmed": 20869, "##uze": 20395, "administratively": 23710, "robotic": 20478, "lilith": 25576, "drafting": 21168, "\u05d5": 1246, "[unused776]": 781, "contraction": 21963, "exquisite": 19401, "norris": 15466, "rift": 16931, "wiener": 25072, "kara": 13173, "[unused921]": 926, "hopes": 8069, "rumours": 19200, "genealogical": 29606, "matilda": 17981, "official": 2880, "axial": 26819, "insignificant": 27018, "##\u516c": 30298, "regarded": 5240, "wouldn": 2876, "trusting": 19836, "e": 1041, "##led": 3709, "text": 3793, "ordinance": 16692, "donated": 6955, "##nce": 5897, "\u00b6": 1086, "880": 26839, "##ich": 7033, "deities": 17091, "altering": 22552, "oversaw": 14105, "inquired": 24849, "supervisor": 12366, "modulation": 25502, "##\u6211": 30381, "##wn": 7962, "##eres": 18702, "roth": 12211, "lebanese": 12592, "automotive": 12945, "advisory": 7319, "2d": 14134, "becky": 14407, "tarzan": 24566, "suspend": 28324, "\u09a7": 1365, "[unused711]": 716, "organisation": 5502, "huang": 15469, "rescue": 5343, "geographically": 20969, "time": 2051, "fowler": 14990, "dorset": 15367, "parish": 3583, "[unused35]": 36, "##\u09b6": 29910, "##sic": 19570, "netting": 26909, "theatrical": 8900, "##verance": 21998, "##dm": 22117, "lucille": 28016, "##rug": 26549, "##lland": 26087, "species": 2427, "abyss": 22159, "hazardous": 17760, "smart": 6047, "privacy": 9394, "##ted": 3064, "##cen": 27524, "tandem": 18231, "walters": 19097, "syllables": 20732, "congestion": 20176, "[unused550]": 555, "##icio": 27113, "benefits": 6666, "cnn": 13229, "##rant": 17884, "pill": 17357, "variants": 10176, "rosary": 28291, "widely": 4235, "decisive": 13079, "salisbury": 13817, "group": 2177, "\u963f": 1971, "sloan": 19024, "cappella": 23013, "cooling": 11520, "restraining": 28285, "jarrett": 24503, "##ole": 9890, "harpsichord": 26504, "ahl": 18347, "event": 2724, "trades": 14279, "knuckles": 13513, "###": 29614, "##da": 2850, "visibly": 19397, "dose": 13004, "exotic": 12564, "stanza": 29509, "spatial": 13589, "quintet": 18109, "##\u793e": 30450, "butter": 12136, "opposition": 4559, "buren": 29470, "jeans": 6312, "mining": 5471, "slid": 4934, "virgin": 6261, "[unused214]": 219, "patterson": 12424, "unpleasant": 16010, "##\u0438": 10325, "marx": 13518, "striker": 11854, "stryker": 25429, "##\u548c": 30322, "wait": 3524, "models": 4275, "kitchener": 27154, "ufc": 11966, "paraguay": 13884, "tentatively": 19325, "twinned": 25901, "logged": 26618, "[unused18]": 19, "magma": 28933, "##taken": 25310, "eine": 27665, "bitterly": 19248, "brest": 22451, "##tled": 14782, "##bang": 25153, "##stone": 9221, "limo": 23338, "ireland": 3163, "metres": 3620, "\u00b4": 1084, "missed": 4771, "baronetcy": 25071, "1898": 6068, "davies": 9082, "pondered": 28347, "colonial": 5336, "##logist": 10727, "extent": 6698, "lateral": 11457, "cross": 2892, "realizes": 10919, "##lce": 23314, "drury": 25663, "gravely": 28070, "mira": 18062, "\u826f": 1938, "28th": 15538, "##ssee": 29522, "##sboro": 25623, "dirt": 6900, "street": 2395, "sindh": 20284, "[unused498]": 503, "pensions": 22024, "ser": 14262, "impending": 17945, "bison": 22285, "chateau": 11874, "##neer": 19755, "##ation": 3370, "carlisle": 13575, "victorian": 6652, "harvest": 11203, "chet": 25157, "melted": 12501, "carver": 20163, "attendants": 26727, "holdings": 9583, "##ade": 9648, "temporary": 5741, "peculiar": 14099, "conserve": 27749, "##\u1174": 30018, "spec": 28699, "relay": 8846, "posters": 14921, "mourning": 16236, "internment": 29041, "vivian": 13801, "[unused926]": 931, "##inates": 28184, "[unused571]": 576, "obituary": 20815, "##cture": 14890, "##dium": 12811, "origins": 7321, "collaborations": 17437, "competitor": 12692, "tre": 29461, "oslo": 9977, "\u110a": 1462, "punt": 18975, "tray": 11851, "##hony": 27629, "tinted": 25577, "##ours": 22957, "##oga": 18170, "clones": 24418, "phenomena": 13352, "owning": 19273, "influenced": 5105, "dummy": 24369, "bearing": 7682, "complex": 3375, "lyman": 27587, "biological": 6897, "archdeacon": 21742, "hyde": 11804, "descriptions": 13271, "bones": 5944, "interrupted": 7153, "wan": 14071, "apartments": 9620, "policing": 21107, "##ays": 22916, "big": 2502, "dir": 16101, "oceanic": 18955, "prepares": 20776, "xml": 20950, "railway": 2737, "tor": 17153, "plunge": 25912, "fuels": 20145, "##nche": 26091, "armed": 4273, "johor": 25268, "temporarily": 8184, "1813": 12169, "\u6c37": 1895, "\u0291": 1137, "fda": 17473, "combatants": 26622, "strategy": 5656, "debates": 14379, "mathematicians": 29374, "##rim": 20026, "1626": 28818, "befriended": 23386, "##ination": 12758, "diplomatic": 8041, "##pe": 5051, "stand": 3233, "accommodated": 28959, "mozart": 13177, "uber": 19169, "goals": 3289, "coined": 13279, "settled": 3876, "##\u25cf": 30146, "##oro": 14604, "immune": 11311, "ceiling": 5894, "nina": 9401, "charley": 20430, "educate": 16957, "callum": 15229, "lined": 7732, "sr": 5034, "nh": 18699, "sarawak": 21546, "slapped": 11159, "thanks": 4283, "##far": 14971, "##gaon": 27073, "za": 23564, "deutsche": 11605, "##wice": 23425, "(": 1006, "populace": 22508, "nantes": 25387, "lucius": 15639, "[unused468]": 473, "byron": 12234, "##fin": 16294, "##holder": 14528, "##una": 9521, "guidance": 8606, "##hering": 22658, "unidentified": 20293, "bullock": 25200, "##aging": 16594, "sprinted": 25156, "wilfred": 26026, "congresses": 24460, "##nbc": 28957, "##pps": 28281, "london": 2414, "wanting": 5782, "##gence": 17905, "thinner": 23082, "jana": 23341, "tennis": 5093, "acceptance": 9920, "sd": 17371, "mein": 24182, "drones": 24633, "##\u53e3": 30314, "shadow": 5192, "[unused26]": 27, "##\u110a": 29998, "1830s": 20400, "##bered": 22408, "radar": 7217, "haggard": 27912, "kits": 18628, "1982": 3196, "term": 2744, "which": 2029, "viscount": 12182, "maxi": 21510, "siberia": 16881, "crossings": 20975, "[unused558]": 563, "synonym": 10675, "##\u82f1": 30467, "##dates": 27122, "##\u4eee": 30287, "locally": 7246, "norwood": 22804, "wears": 11651, "##mine": 11233, "archers": 23118, "aerodrome": 23843, "descend": 18855, "distinctive": 8200, "smelled": 9557, "commemorate": 13415, "unstable": 14480, "theatres": 13166, "strangely": 13939, "##beck": 12750, "##ired": 27559, "concourse": 28571, "didn": 2134, "proposition": 14848, "birthday": 5798, "storylines": 22628, "\u5ba3": 1823, "multiplication": 24856, "[unused176]": 181, "liter": 23675, "belt": 5583, "skyla": 21738, "emotional": 6832, "corrections": 20983, "shia": 20474, "100": 2531, "angular": 16108, "zeke": 18270, "organist": 16397, "deputies": 11964, "criminal": 4735, "revived": 10570, "testosterone": 25937, "thyroid": 29610, "steamer": 18027, "regards": 12362, "severity": 18976, "empty": 4064, "chieftain": 26625, "par": 11968, "##yoshi": 19196, "##oes": 22504, "##miya": 29312, "narrows": 25142, "stormed": 16201, "stephens": 15037, "##\u1d9c": 30046, "echoes": 17659, "humble": 15716, "weird": 6881, "mcgraw": 24179, "crewe": 22188, "exclusion": 15945, "cathedral": 5040, "feature": 3444, "threat": 5081, "heavier": 11907, "approached": 5411, "##uid": 21272, "stricken": 16654, "canadian": 3010, "##gation": 12540, "nights": 6385, "same": 2168, "identities": 15702, "reconstructed": 14858, "##mada": 23574, "ruling": 6996, "conservatoire": 29233, "usaf": 18531, "pistons": 24399, "gallery": 3916, "eagerly": 17858, "##ioms": 29178, "##cut": 12690, "skirts": 18184, "foo": 29379, "190": 11827, "weighed": 12781, "pup": 26781, "objects": 5200, "teaching": 4252, "midway": 12213, "converge": 28314, "oregon": 5392, "dorm": 19568, "mated": 28795, "choreography": 16967, "claws": 10702, "mayo": 14415, "the": 1996, "definitions": 15182, "tissue": 8153, "##\u0630": 29822, "10th": 6049, "##watch": 18866, "1776": 13963, "loretta": 28493, "vanished": 9955, "clothing": 5929, "1952": 3999, "beliefs": 9029, "dowager": 20508, "kenji": 25894, "specials": 19247, "contributors": 16884, "awkwardly": 18822, "sheldon": 19369, "suppliers": 20141, "exercised": 17747, "##\u00b1": 29657, "geoffrey": 11023, "shed": 8328, "##\u4eac": 30281, "##idon": 28201, "wants": 4122, "atomic": 9593, "aback": 26575, "jonny": 26937, "##aro": 10464, "foot": 3329, "##ement": 13665, "##bill": 24457, "forerunner": 23993, "odyssey": 18735, "thrust": 7400, "experiences": 6322, "cbs": 6568, "countess": 11716, "##nburg": 22642, "selects": 27034, "unhappy": 12511, "##\u22c5": 30141, "hunt": 5690, "separately": 10329, "##llar": 17305, "hunts": 28526, "horrific": 23512, "embedded": 11157, "168": 16923, "stucco": 27443, "strange": 4326, "compose": 17202, "##chers": 21844, "tiny": 4714, "otago": 21831, "##`": 29639, "easton": 21636, "##gling": 18483, "175": 12862, "shields": 11824, "adjacent": 5516, "icelandic": 14024, "324": 27234, "extinction": 14446, "quad": 17718, "pakistani": 9889, "opposite": 4500, "##nden": 25915, "##eye": 17683, "downwards": 28457, "siena": 23754, "inspectors": 28421, "\u2192": 1585, "ranking": 5464, "##iting": 15402, "guzman": 22789, "weaken": 23021, "avoiding": 9992, "11": 2340, "runways": 24578, "temeraire": 23611, "##ulously": 21227, "plaza": 8232, "larsen": 20094, "ter": 28774, "##\u091a": 29854, "tasha": 25448, "remastered": 19484, "watkins": 17055, "quick": 4248, "resonance": 17011, "##dian": 11692, "speaking": 4092, "ry": 29431, "##promising": 25013, "##inian": 15830, "geoff": 14915, "kaufman": 23699, "1682": 29478, "\u10d0": 1438, "mac": 6097, "rescued": 10148, "drenched": 25265, "##mit": 22930, "\u6c0f": 1891, "fredrik": 25454, "\u540d": 1795, "scale": 4094, "each": 2169, "##nese": 14183, "fulfilled": 16829, "harrison": 6676, "##\u09c0": 29916, "vulcan": 25993, "##aer": 27867, "wondering": 6603, "##tail": 14162, "southwest": 4943, "195": 17317, "easiest": 25551, "sequential": 25582, "porch": 7424, "westminster": 9434, "erin": 11781, "\u5742": 1803, "clarified": 20485, "performers": 9567, "over": 2058, "352": 28906, "velvet": 10966, "##\u5b97": 30347, "picked": 3856, "gould": 14913, "##as": 3022, "specimen": 11375, "##ala": 7911, "increasing": 4852, "cyclists": 21912, "autopsy": 24534, "naacp": 26155, "##rle": 20927, "##\u5341": 30309, "supervise": 28589, "##osity": 25949, "##kind": 18824, "##\u0bc8": 29935, "examiner": 19684, "textile": 12437, "##\u2021": 30062, "stride": 18045, "wondered": 4999, "##yn": 6038, "uncles": 27328, "\u2010": 1513, "outskirts": 12730, "##rize": 25709, "salary": 10300, "[unused222]": 227, "friday": 5958, "circling": 18519, "[unused292]": 297, "ghost": 5745, "[unused618]": 623, "##ulating": 10924, "##ien": 9013, "ambush": 15283, "commanding": 7991, "andrey": 29219, "##ucher": 22368, "[unused74]": 75, "television": 2547, "crook": 19302, "stockholm": 8947, "\u30e1": 1726, "educator": 11490, "flawed": 25077, "xiao": 19523, "nbl": 28013, "chuckle": 15375, "subtropical": 11935, "##sb": 19022, "spokesperson": 15974, "stalker": 23883, "##king": 6834, "pendleton": 24349, "humiliated": 26608, "intricate": 17796, "braden": 27232, "##ois": 10054, "schubert": 24645, "chandra": 16469, "\u0261": 1116, "crippled": 24433, "copying": 24731, "oasis": 18128, "notorious": 12536, "\u03c9": 1179, "complicated": 8552, "injuring": 22736, "pamela": 17217, "learns": 10229, "clube": 24852, "lyndon": 23037, "als": 25520, "workout": 27090, "straightened": 11168, "slamming": 15209, "briefly": 4780, "dogs": 6077, "##nostic": 28199, "orphans": 21478, "preacher": 14512, "lift": 6336, "enhanced": 9412, "interview": 4357, "exit": 6164, "##ft": 6199, "##inn": 23111, "engineers": 6145, "##care": 16302, "chiang": 17684, "##\u110b": 29999, "logo": 8154, "##\u0131": 11722, "inward": 20546, "heads": 4641, "##\u30c6": 30239, "nuevo": 22250, "barbarians": 28056, "issue": 3277, "##earing": 27242, "pointer": 20884, "mushroom": 18565, "wishing": 10261, "521": 26963, "wien": 22782, "tempest": 22553, "##\u2295": 30139, "dartmouth": 16960, "charismatic": 23916, "hiram": 27410, "casualties": 8664, "gorge": 14980, "basement": 8102, "brutality": 24083, "##illy": 20577, "hired": 5086, "ballast": 28030, "hoisted": 27269, "chrysler": 17714, "pulling": 4815, "##\u8c37": 30477, "##cek": 25368, "\u0639": 1288, "diploma": 9827, "cancers": 25409, "##olf": 28027, "pali": 28619, "\u0686": 1303, "connecting": 7176, "utilize": 16462, "##ieu": 17301, "walkway": 19467, "receiver": 8393, "oxygen": 7722, "gin": 18353, "renewed": 9100, "dentistry": 26556, "sipped": 17735, "chests": 28717, "\u116a": 1476, "pointedly": 28713, "##hing": 12053, "season": 2161, "##tv": 9189, "persecution": 14522, "wendell": 24526, "178": 19289, "[unused71]": 72, "moments": 5312, "eligibility": 11395, "tiberius": 28411, "renaissance": 8028, "bihar": 16178, "##wall": 9628, "degradation": 16627, "tasks": 8518, "##\u03bf": 29730, "scandinavian": 17660, "dolphin": 17801, "lease": 10084, "budgets": 26178, "year": 2095, "raising": 6274, "specifically": 4919, "blackish": 22032, "##cide": 27082, "dunbar": 23034, "329": 29567, "##uter": 19901, "microscopic": 26396, "##croft": 14716, "loosened": 22456, "##ggy": 22772, "##kara": 16566, "privileges": 14310, "\u6f22": 1904, "tragedy": 10576, "tome": 21269, "aft": 16638, "##thes": 24138, "driver": 4062, "attached": 4987, "##kushima": 24917, "suited": 10897, "##\u82b1": 30466, "unto": 19662, "souza": 26598, "georgia": 4108, "boston": 3731, "tombs": 16623, "hara": 18820, "##oma": 9626, "laboratory": 5911, "ballroom": 14307, "##cript": 23235, "##\u7f8e": 30461, "##uses": 25581, "##hism": 23108, "invasive": 17503, "begins": 4269, "editing": 9260, "flesh": 5771, "##fight": 20450, "subsequent": 4745, "escorted": 13127, "et": 3802, "cultivated": 13237, "290": 17222, "viii": 9937, "nice": 3835, "\u0584": 1239, "bury": 11010, "capability": 10673, "denver": 7573, "beatty": 27305, "leadership": 4105, "tempered": 22148, "garland": 17017, "genie": 22519, "##brate": 22008, "lutheran": 10034, "[unused600]": 605, "colored": 6910, "[unused263]": 268, "##\u702c": 30431, "\u02bc": 1146, "exploit": 18077, "##lastic": 28723, "jody": 27562, "admitted": 4914, "detailing": 17555, "huntington": 16364, "maritime": 7803, "##ella": 8411, "masters": 5972, "kamen": 22099, "trombone": 13914, "sucked": 8631, "midfield": 23071, "laying": 10201, "rainfall": 10101, "animated": 6579, "poisoning": 16149, "branch": 3589, "technology": 2974, "atkins": 21087, "explosion": 7738, "roma": 12836, "miraculous": 26106, "##lr": 20974, "conservatory": 11879, "bangkok": 12627, "brighter": 16176, "grouped": 15131, "sabine": 18578, "fever": 9016, "kanye": 29270, "##cturing": 19159, "##cu": 10841, "forrest": 16319, "client": 7396, "boise": 23193, "generators": 16937, "electoral": 6092, "damn": 4365, "##bank": 9299, "extraction": 14676, "kosovo": 11491, "elevator": 7764, "lehigh": 23241, "exaggerated": 16903, "irritated": 15560, "celebrities": 12330, "belonging": 7495, "secession": 22965, "distinguishes": 27343, "penguin": 13987, "\u27e9": 1630, "##edance": 29605, "ardent": 25314, "cradled": 23774, "locke": 18343, "[unused780]": 785, "downstream": 13248, "1793": 12387, "[unused495]": 500, "\uff01": 1986, "strengthening": 16003, "peaking": 13015, "tattooed": 26464, "asiatic": 23983, "panther": 15133, "charity": 5952, "rm": 28549, "257": 24368, "##ug": 15916, "[unused233]": 238, "showered": 23973, "coward": 16592, "dax": 27116, "hallways": 28274, "wage": 11897, "durga": 28746, "parliamentary": 5768, "80": 3770, "wash": 9378, "##rta": 13320, "spectral": 17435, "full": 2440, "\u3002": 1636, "tertiary": 13553, "leaves": 3727, "confession": 12633, "rb": 21144, "frigate": 15437, "##dust": 24220, "dangerously": 20754, "alexia": 21683, "important": 2590, "[unused356]": 361, "spaniards": 20999, "##sur": 26210, "director": 2472, "corpus": 13931, "devices": 5733, "yoga": 13272, "grimaced": 19014, "\u0932": 1334, "[unused311]": 316, "sabah": 22515, "\u044c": 1207, "updated": 7172, "artificial": 7976, "marc": 7871, "plunging": 29059, "normally": 5373, "karachi": 15381, "intending": 16533, "crane": 11308, "syndrome": 8715, "identifies": 14847, "flexibility": 16991, "pixels": 27725, "parental": 18643, "dominates": 29532, "[unused882]": 887, "##tively": 25499, "##lka": 26518, "[unused862]": 867, "##0": 2692, "days": 2420,
[...]
